<PAD>	0
<UNK>	0
<SOS>	0
<EOS>	0
<MASK>	0
<extra_id_0>	0
<extra_id_1>	0
<extra_id_2>	0
▁ک	-0
▁ا	-1
▁ہ	-2
▁م	-3
یں	-4
▁ب	-5
▁س	-6
▁ت	-7
▁پ	-8
▁ن	-9
▁کی	-10
▁ہے	-11
ان	-12
▁ج	-13
▁د	-14
ور	-15
ار	-16
▁ہو	-17
▁کے	-18
یا	-19
▁میں	-20
▁کا	-21
▁و	-22
▁ر	-23
▁گ	-24
▁کر	-25
▁ل	-26
▁اس	-27
▁کو	-28
ات	-29
▁سے	-30
ال	-31
یک	-32
▁آ	-33
ائ	-34
وں	-35
▁ہے۔	-36
▁ی	-37
▁ہیں	-38
ھی	-39
▁نہ	-40
▁ان	-41
ری	-42
ام	-43
▁چ	-44
▁خ	-45
▁اور	-46
▁یہ	-47
نے	-48
تا	-49
▁ش	-50
▁ف	-51
ست	-52
▁ع	-53
نا	-54
▁پر	-55
▁ح	-56
ین	-57
▁نہیں	-58
▁کہ	-59
▁تو	-60
▁تھ	-61
اک	-62
▁ق	-63
ئی	-64
اہ	-65
لا	-66
▁نے	-67
▁بھی	-68
یر	-69
یس	-70
▁رہ	-71
تے	-72
تی	-73
ئے	-74
▁وہ	-75
لی	-76
▁ٹ	-77
▁ایک	-78
▁ہیں۔	-79
▁ہم	-80
▁کیا	-81
اب	-82
ند	-83
اد	-84
▁ص	-85
نی	-86
▁ہوں	-87
▁ز	-88
ستان	-89
یم	-90
▁اپ	-91
▁ط	-92
▁پاک	-93
▁لی	-94
می	-95
ول	-96
▁پاکستان	-97
▁جو	-98
ے۔	-99
اری	-100
▁دو	-101
▁پہ	-102
سی	-103
از	-104
ید	-105
▁تھا	-106
لہ	-107
اں	-108
▁ڈ	-109
▁ہی	-110
چھ	-111
نگ	-112
کھ	-113
ھر	-114
ائی	-115
▁بہ	-116
▁گا	-117
▁دی	-118
ون	-119
▁اب	-120
لے	-121
▁رو	-122
▁ال	-123
▁خو	-124
ائے	-125
▁مع	-126
لم	-127
یت	-128
▁مل	-129
▁بہت	-130
وم	-131
▁بی	-132
▁سک	-133
قت	-134
گر	-135
▁سو	-136
جھ	-137
رو	-138
▁مو	-139
انی	-140
را	-141
▁بات	-142
▁کوئی	-143
رف	-144
▁ایس	-145
دی	-146
▁پی	-147
دہ	-148
▁مس	-149
▁آپ	-150
▁سب	-151
▁جات	-152
▁کھ	-153
▁بن	-154
انے	-155
ارے	-156
▁لو	-157
▁گیا	-158
ٹی	-159
▁لیے	-160
▁کچھ	-161
▁غ	-162
▁۔	-163
اتھ	-164
▁چاہ	-165
رد	-166
▁وال	-167
▁کم	-168
▁بھ	-169
▁کام	-170
▁ای	-171
▁جا	-172
▁من	-173
گی	-174
▁ام	-175
▁می	-176
▁دن	-177
رے	-178
▁سی	-179
▁بڑ	-180
▁مح	-181
▁یا	-182
▁اپنے	-183
ٹر	-184
▁جب	-185
ما	-186
▁تھی	-187
▁بر	-188
بی	-189
▁کرتا	-190
▁لگ	-191
▁لوگ	-192
اف	-193
▁ہوتا	-194
▁رہا	-195
▁دوس	-196
▁فی	-197
اح	-198
▁کرنے	-199
▁رکھ	-200
▁سیا	-201
قی	-202
▁ض	-203
▁رہے	-204
▁تھا۔	-205
▁حک	-206
▁چھ	-207
▁عم	-208
▁مق	-209
ود	-210
▁وقت	-211
اس	-212
یکن	-213
▁دیک	-214
▁تع	-215
خت	-216
▁کسی	-217
رح	-218
لام	-219
▁پھر	-220
▁شک	-221
▁کرنا	-222
شن	-223
مہ	-224
ورت	-225
یز	-226
ٹھ	-227
کی	-228
▁ساتھ	-229
▁اد	-230
▁جس	-231
▁لیکن	-232
ڑی	-233
▁نظ	-234
▁ہوا	-235
▁اع	-236
▁اپنی	-237
▁مجھ	-238
▁کار	-239
▁دیکھ	-240
▁ہوں۔	-241
▁گی	-242
▁سر	-243
▁جن	-244
▁ہر	-245
▁جان	-246
▁آج	-247
▁در	-248
▁دیا	-249
▁میر	-250
▁تھے۔	-251
▁ذ	-252
▁مش	-253
▁دل	-254
رین	-255
▁اف	-256
عد	-257
▁نو	-258
▁تک	-259
▁مت	-260
▁ملک	-261
▁با	-262
کر	-263
وری	-264
▁دنیا	-265
جہ	-266
▁کب	-267
ران	-268
▁ضر	-269
▁مجھے	-270
▁گئی	-271
▁جائے	-272
وی	-273
▁گا۔	-274
▁چاہی	-275
مال	-276
▁تر	-277
▁کرتے	-278
▁گئے	-279
یاں	-280
▁تم	-281
▁جاتا	-282
جی	-283
▁حکوم	-284
▁انت	-285
▁رہی	-286
ہر	-287
لاف	-288
رم	-289
▁وا	-290
▁ٹیم	-291
کہ	-292
بر	-293
▁پڑ	-294
کل	-295
انا	-296
▁سم	-297
▁فیص	-298
▁ہونے	-299
وٹ	-300
▁بعد	-301
▁اسے	-302
▁حال	-303
▁حکومت	-304
اص	-305
▁اگر	-306
▁ہونا	-307
در	-308
قع	-309
▁تھے	-310
فا	-311
وس	-312
▁مط	-313
▁زیا	-314
▁یہاں	-315
▁دور	-316
انہ	-317
▁یہی	-318
▁اللہ	-319
▁طرح	-320
▁ایسا	-321
سان	-322
▁زیادہ	-323
▁قو	-324
دار	-325
▁اح	-326
▁پس	-327
▁گے	-328
لاق	-329
▁نام	-330
▁بد	-331
لق	-332
ائیں	-333
لو	-334
نچ	-335
ارہ	-336
▁ہمارے	-337
▁تھی۔	-338
فی	-339
▁انہ	-340
▁سام	-341
▁اسلام	-342
سم	-343
سٹ	-344
▁سال	-345
شت	-346
ریک	-347
لئے	-348
ینڈ	-349
▁اسی	-350
▁پہلے	-351
تم	-352
رب	-353
رہ	-354
ارت	-355
ارا	-356
▁کپ	-357
کا	-358
▁ور	-359
▁است	-360
▁ہوتی	-361
کے	-362
▁صرف	-363
▁تح	-364
▁مر	-365
▁گز	-366
الی	-367
ادی	-368
▁بار	-369
▁بج	-370
▁جہ	-371
یو	-372
▁ٹھ	-373
▁ات	-374
▁نا	-375
▁لئے	-376
▁سمجھ	-377
شی	-378
▁چل	-379
▁کہا	-380
▁ہوئے	-381
نڈ	-382
▁خان	-383
جود	-384
▁بے	-385
▁سن	-386
▁طرف	-387
▁پسند	-388
▁کبھی	-389
▁ہوتے	-390
یل	-391
روع	-392
▁وز	-393
▁شروع	-394
▁فیصلہ	-395
▁کیلئے	-396
امی	-397
▁کریں	-398
▁تب	-399
▁سوچ	-400
▁لیا	-401
▁چاہیے۔	-402
ائن	-403
اہر	-404
▁بل	-405
▁فلم	-406
فر	-407
وب	-408
▁اص	-409
▁پید	-410
▁جیس	-411
▁نظر	-412
کٹ	-413
ریز	-414
یسٹ	-415
▁زم	-416
▁مد	-417
▁بچ	-418
▁پاکستانی	-419
▁ہوئی	-420
نٹ	-421
▁مز	-422
▁کیوں	-423
▁پہنچ	-424
▁کس	-425
▁والے	-426
▁انسان	-427
▁لوگوں	-428
▁سیاست	-429
ندگی	-430
▁کرو	-431
▁کیس	-432
▁سکتا	-433
احب	-434
▁مذ	-435
▁صاحب	-436
ریف	-437
▁میرے	-438
ثر	-439
▁اپنا	-440
▁حس	-441
▁سیاسی	-442
▁جی	-443
▁فر	-444
▁قر	-445
▁ضرورت	-446
بت	-447
مد	-448
یں۔	-449
▁اج	-450
▁اچھ	-451
▁پیدا	-452
▁لے	-453
▁مسلم	-454
وع	-455
▁اخ	-456
▁ہمیں	-457
▁اہ	-458
▁طور	-459
▁ہماری	-460
مل	-461
▁ہوگ	-462
▁ریا	-463
▁مگر	-464
▁دوسرے	-465
باد	-466
یات	-467
▁بھر	-468
اج	-469
▁مخت	-470
مت	-471
▁بڑھ	-472
▁ایسے	-473
▁خلاف	-474
امل	-475
▁گھر	-476
▁استع	-477
▁شکست	-478
30	-479
دا	-480
▁ھ	-481
▁خود	-482
گہ	-483
ائل	-484
ائم	-485
▁انگ	-486
▁اٹھ	-487
▁سوال	-488
وز	-489
▁،	-490
▁اک	-491
روں	-492
▁مص	-493
▁کل	-494
▁بند	-495
▁خیا	-496
عت	-497
▁بح	-498
▁ری	-499
▁گر	-500
اریخ	-501
▁امریک	-502
با	-503
▁آئے	-504
▁تاریخ	-505
ئن	-506
▁چیز	-507
▁کرکٹ	-508
▁نہیں۔	-509
▁انڈ	-510
▁کھی	-511
▁سامنے	-512
▁بنا	-513
▁جنگ	-514
▁صورت	-515
▁استعمال	-516
صہ	-517
لڈ	-518
▁دے	-519
▁ختم	-520
▁زندگی	-521
نس	-522
▁او	-523
▁عد	-524
▁خوش	-525
▁جہاں	-526
فت	-527
▁علم	-528
▁کرا	-529
▁قومی	-530
▁وزیر	-531
لیم	-532
▁بس	-533
▁فو	-534
▁مک	-535
▁ٹیسٹ	-536
لاح	-537
▁خط	-538
لف	-539
لان	-540
ینی	-541
▁تق	-542
▁را	-543
▁انہیں	-544
سپ	-545
وار	-546
▁کون	-547
▁ریاست	-548
▁شا	-549
▁جگہ	-550
▁جاتے	-551
▁خیال	-552
زم	-553
▁بین	-554
▁والی	-555
▁گھ	-556
▁قان	-557
▁وجہ	-558
▁نواز	-559
نج	-560
▁بال	-561
رت	-562
یب	-563
وال	-564
▁مذہ	-565
▁گی۔	-566
ئر	-567
وڑ	-568
ریل	-569
▁شر	-570
▁نک	-571
▁اند	-572
▁کھلا	-573
چی	-574
▁تی	-575
▁شہ	-576
قہ	-577
▁مہ	-578
▁جاتی	-579
▁اسٹ	-580
▁دکھ	-581
▁مار	-582
▁کمپ	-583
▁بارے	-584
▁میری	-585
جو	-586
▁صح	-587
▁عام	-588
▁مسئ	-589
▁پیش	-590
▁کرے	-591
▁دیتے	-592
▁گاڑی	-593
▁جائیں	-594
▁عو	-595
▁نم	-596
▁ٹی	-597
▁علی	-598
▁ڈال	-599
▁کیسے	-600
▁بھارت	-601
▁مختلف	-602
نہ	-603
نوں	-604
▁دھ	-605
▁گو	-606
▁موجود	-607
شیا	-608
ورٹ	-609
▁تین	-610
▁بیٹھ	-611
▁آئی	-612
▁ایم	-613
▁معا	-614
بہ	-615
یہ	-616
اصل	-617
ایا	-618
انوں	-619
▁روا	-620
▁نئے	-621
▁حاصل	-622
لط	-623
اتی	-624
یکس	-625
▁میرا	-626
عو	-627
کو	-628
بان	-629
▁آگ	-630
▁مج	-631
▁بڑے	-632
▁عمل	-633
▁غیر	-634
▁گے۔	-635
سک	-636
ٹس	-637
ائر	-638
اتے	-639
کار	-640
▁باز	-641
▁پاس	-642
▁کرد	-643
بو	-644
لز	-645
▁سپ	-646
▁وس	-647
▁پھ	-648
▁پار	-649
▁تمام	-650
▁سکتی	-651
▁سکتے	-652
▁وہاں	-653
یمت	-654
▁شع	-655
▁کش	-656
▁میڈ	-657
▁قانون	-658
▁قب	-659
▁سفر	-660
▁شریف	-661
ظم	-662
▁ما	-663
اہور	-664
▁ملا	-665
▁پور	-666
▁دوست	-667
▁لاہور	-668
▁کھلاڑی	-669
70	-670
شہ	-671
لس	-672
ابل	-673
ستہ	-674
▁تص	-675
▁رنگ	-676
▁جیسے	-677
▁اض	-678
▁اق	-679
▁لکھ	-680
▁مست	-681
▁کمی	-682
▁تعلق	-683
ونی	-684
▁کت	-685
▁روز	-686
▁آئ	-687
59	-688
93	-689
▁آخ	-690
▁نق	-691
▁جمہ	-692
▁خوب	-693
▁عال	-694
▁فوج	-695
▁وہی	-696
▁قیمت	-697
▁معام	-698
▁ہاتھ	-699
27	-700
65	-701
be	-702
ضی	-703
اتا	-704
یاد	-705
▁ار	-706
▁شو	-707
▁ڈی	-708
▁لیگ	-709
▁میچ	-710
▁جاری	-711
اہد	-712
▁حق	-713
▁بڑی	-714
▁انتظ	-715
▁مسئلہ	-716
▁کراچی	-717
▁متع	-718
▁پرو	-719
▁اچھا	-720
خص	-721
▁اچ	-722
▁بدل	-723
▁واپ	-724
▁رکھتا	-725
▁دوسروں	-726
ریب	-727
▁آز	-728
▁تج	-729
▁تن	-730
▁بلکہ	-731
▁جواب	-732
▁عوام	-733
▁موقع	-734
▁ورلڈ	-735
▁دونوں	-736
ظر	-737
ابق	-738
غیر	-739
▁مف	-740
▁مم	-741
لینڈ	-742
▁آیا	-743
▁بیٹ	-744
▁نئی	-745
▁علاق	-746
▁مشکل	-747
دم	-748
لب	-749
▁ظ	-750
قین	-751
▁جل	-752
▁مان	-753
▁ناک	-754
▁یاد	-755
▁کہاں	-756
باب	-757
▁مث	-758
▁ڈھ	-759
ماعت	-760
▁کئی	-761
▁قرار	-762
▁والا	-763
کن	-764
▁اضاف	-765
▁کرتی	-766
بال	-767
▁خر	-768
اروں	-769
▁باہر	-770
▁نظام	-771
▁ٹھیک	-772
▁کھیل	-773
▁کامیا	-774
ورو	-775
▁چیم	-776
▁کوش	-777
سوس	-778
یوں	-779
▁آد	-780
▁جھ	-781
ائنل	-782
▁ارد	-783
▁تمہ	-784
▁قدر	-785
▁قوم	-786
▁لگا	-787
▁نکل	-788
▁چند	-789
▁تبدی	-790
تان	-791
▁بت	-792
▁کن	-793
▁جائ	-794
▁مدد	-795
▁جانے	-796
▁کہیں	-797
▁جماعت	-798
▁سیریز	-799
▁اقت	-800
▁حصہ	-801
▁سما	-802
▁قائم	-803
▁کوشش	-804
▁اعلان	-805
▁انداز	-806
▁کمپنی	-807
لوم	-808
▁چی	-809
▁کیے	-810
▁آباد	-811
▁چھوڑ	-812
▁فائنل	-813
ڑا	-814
کس	-815
اہم	-816
▁فت	-817
▁لم	-818
▁مض	-819
▁ھے	-820
▁آگے	-821
▁ماہ	-822
▁ابھی	-823
▁شامل	-824
▁مکمل	-825
▁کردیا	-826
▁امریکہ	-827
رز	-828
الت	-829
▁نی	-830
▁رات	-831
▁سیک	-832
▁کہہ	-833
▁دینے	-834
▁شکار	-835
▁واقع	-836
▁حالات	-837
وا	-838
پی	-839
▁دان	-840
▁پری	-841
▁چھٹ	-842
▁چین	-843
▁کتا	-844
▁بینک	-845
▁خواہ	-846
▁دیتا	-847
▁میڈیا	-848
اع	-849
زی	-850
وے	-851
انچ	-852
میر	-853
▁عر	-854
▁معی	-855
▁منا	-856
▁پول	-857
▁افری	-858
▁ایسی	-859
▁ترین	-860
▁رہتا	-861
▁ث	-862
▁بو	-863
▁مخ	-864
ریلیا	-865
▁پرند	-866
▁مسلمان	-867
▁تا	-868
▁دا	-869
▁ڈر	-870
مالک	-871
▁آنے	-872
▁ایف	-873
▁خری	-874
▁بجلی	-875
▁بہتر	-876
▁بیان	-877
▁تیار	-878
▁عمران	-879
▁ممالک	-880
وریت	-881
▁ڈاک	-882
▁ہمارا	-883
بل	-884
کش	-885
ائد	-886
▁احت	-887
▁واپس	-888
▁پوری	-889
▁ہوا۔	-890
▁ہوگا	-891
▁دوسری	-892
▁چاہیے	-893
▁معاملہ	-894
وہ	-895
دید	-896
فاظ	-897
▁اظ	-898
▁سٹ	-899
سانی	-900
▁اخت	-901
▁آدمی	-902
▁مطال	-903
▁انہوں	-904
▁باتیں	-905
بار	-906
▁دہ	-907
میان	-908
▁بڑا	-909
▁شخص	-910
▁چکے	-911
▁ہند	-912
▁شاید	-913
▁کہتے	-914
▁متعلق	-915
▁درمیان	-916
شل	-917
ڈر	-918
چسپ	-919
ہار	-920
احول	-921
پورٹ	-922
▁یوں	-923
▁دلچسپ	-924
▁ماحول	-925
▁جمہوریت	-926
عے	-927
ڑے	-928
گو	-929
ئیں	-930
▁حل	-931
▁ڈے	-932
امات	-933
رانس	-934
▁ویس	-935
▁ہاں	-936
▁تھیں	-937
▁مزید	-938
سر	-939
پر	-940
▁آن	-941
▁اے	-942
▁سچ	-943
▁فط	-944
▁لا	-945
▁جیت	-946
▁خاص	-947
▁خیر	-948
▁نتی	-949
▁زبان	-950
▁لگتا	-951
▁مذہب	-952
▁ایشیا	-953
▁عالمی	-954
ذب	-955
اور	-956
واز	-957
▁پو	-958
▁آتے	-959
▁امی	-960
▁حکم	-961
▁اندر	-962
▁رائے	-963
▁مسائل	-964
وص	-965
▁لڑ	-966
ائیک	-967
ابند	-968
▁خام	-969
▁قوت	-970
▁معم	-971
▁پنج	-972
▁اداک	-973
▁مطابق	-974
ائش	-975
خاب	-976
▁تش	-977
خلاف	-978
▁اصل	-979
▁منص	-980
▁چار	-981
▁باقی	-982
▁معاش	-983
▁کردی	-984
▁یقین	-985
▁پابند	-986
▁اقتدار	-987
▁انتخاب	-988
بح	-989
زا	-990
ادر	-991
حال	-992
کرد	-993
▁رس	-994
▁ادا	-995
▁خوف	-996
▁ساز	-997
▁شہر	-998
▁نیا	-999
▁اسٹی	-1000
▁اچھی	-1001
▁موسم	-1002
▁پانچ	-1003
▁چیمپ	-1004
▁گیا۔	-1005
▁روایت	-1006
▁محسوس	-1007
عی	-1008
اکی	-1009
یاتی	-1010
▁غلط	-1011
▁کان	-1012
▁دورہ	-1013
▁کتاب	-1014
▁زمباب	-1015
▁معلوم	-1016
جن	-1017
ڈی	-1018
کت	-1019
ارف	-1020
راد	-1021
مان	-1022
▁حی	-1023
▁سہ	-1024
▁مغ	-1025
▁نش	-1026
ونکہ	-1027
▁دیں	-1028
▁علا	-1029
▁پیپ	-1030
کردگی	-1031
▁انتہ	-1032
▁ترقی	-1033
▁گرین	-1034
▁تعلیم	-1035
▁کپتان	-1036
▁انگریز	-1037
▁بک	-1038
عودی	-1039
▁آتی	-1040
▁اعت	-1041
▁باع	-1042
▁بول	-1043
▁بیم	-1044
▁جاپ	-1045
▁ریس	-1046
▁قسم	-1047
▁مری	-1048
▁دیگر	-1049
▁پہلا	-1050
▁اضافہ	-1051
▁سعودی	-1052
▁ضروری	-1053
▁فرانس	-1054
▁پنجاب	-1055
▁کاروب	-1056
▁کارکردگی	-1057
اط	-1058
صے	-1059
عہ	-1060
پے	-1061
قیق	-1062
▁شی	-1063
ارتی	-1064
▁عمر	-1065
▁پڑھ	-1066
▁گزر	-1067
▁اردو	-1068
▁مطلب	-1069
▁دوسرا	-1070
▁دیکھا	-1071
ہیں	-1072
یدہ	-1073
▁ہا	-1074
▁ائی	-1075
▁ذری	-1076
▁چکا	-1077
▁بغیر	-1078
▁خراب	-1079
▁دینا	-1080
▁شہری	-1081
▁کافی	-1082
▁ہاکی	-1083
▁پارٹی	-1084
▁چیزوں	-1085
اق	-1086
اڑ	-1087
پا	-1088
حان	-1089
غاز	-1090
میت	-1091
وبی	-1092
کان	-1093
▁قد	-1094
▁امت	-1095
▁اہم	-1096
▁بحث	-1097
▁تیل	-1098
▁خبر	-1099
▁صبح	-1100
▁ہوج	-1101
▁یون	-1102
▁باعث	-1103
▁عدالت	-1104
▁مذہبی	-1105
▁صورتحال	-1106
بھ	-1107
اکھ	-1108
▁آخر	-1109
▁ایل	-1110
▁این	-1111
▁خار	-1112
▁خدا	-1113
▁شام	-1114
▁کھل	-1115
▁گیم	-1116
▁اعظم	-1117
▁پیپلز	-1118
▁کردار	-1119
▁چیمپئن	-1120
▁کامیاب	-1121
▁کیخلاف	-1122
▁زمبابوے	-1123
63	-1124
بن	-1125
تھ	-1126
ضح	-1127
ورس	-1128
▁شب	-1129
▁فض	-1130
▁بتا	-1131
▁حقی	-1132
▁دست	-1133
▁فکر	-1134
▁گرد	-1135
▁آواز	-1136
▁خوبص	-1137
▁کہنا	-1138
▁ہوگی	-1139
▁تحقیق	-1140
▁پولیس	-1141
▁ڈاکٹر	-1142
▁کھانا	-1143
▁تبدیلی	-1144
نت	-1145
ِہ	-1146
یح	-1147
ابط	-1148
ارڈ	-1149
ثیت	-1150
رار	-1151
یشہ	-1152
▁آر	-1153
▁بز	-1154
یادت	-1155
▁دار	-1156
▁دین	-1157
▁یِہ	-1158
لاقات	-1159
▁اکثر	-1160
▁جاسک	-1161
▁رہتی	-1162
▁ٹھنڈ	-1163
▁پانی	-1164
▁پیچھ	-1165
▁قیادت	-1166
▁ہمیشہ	-1167
▁انتظار	-1168
آن	-1169
اگ	-1170
تہ	-1171
الا	-1172
صاف	-1173
▁کِ	-1174
▁تیز	-1175
▁حسن	-1176
▁راہ	-1177
▁چکی	-1178
▁الیک	-1179
▁جانا	-1180
▁حوال	-1181
▁سلام	-1182
▁عملی	-1183
▁منظر	-1184
▁پورا	-1185
66	-1186
76	-1187
ھے	-1188
ائٹ	-1189
روف	-1190
ریہ	-1191
ندہ	-1192
▁رق	-1193
▁لط	-1194
▁ون	-1195
رمین	-1196
▁اثر	-1197
▁تیس	-1198
▁ذمہ	-1199
▁سور	-1200
▁صحت	-1201
▁ونڈ	-1202
▁پیر	-1203
▁آنکھ	-1204
▁جانب	-1205
▁راست	-1206
▁رکھا	-1207
▁ظاہر	-1208
▁علام	-1209
▁علما	-1210
▁گئی۔	-1211
▁اظہار	-1212
▁بھائی	-1213
▁جنوبی	-1214
▁حیثیت	-1215
▁اسلامی	-1216
24	-1217
32	-1218
49	-1219
50	-1220
92	-1221
جا	-1222
فظ	-1223
پن	-1224
730	-1225
ضوع	-1226
غان	-1227
لیٹ	-1228
نام	-1229
ندر	-1230
یکٹ	-1231
▁حض	-1232
▁رک	-1233
▁فٹ	-1234
▁وی	-1235
▁احس	-1236
▁ریک	-1237
▁عرب	-1238
▁لیں	-1239
▁اچھے	-1240
▁حسین	-1241
▁قرآن	-1242
▁پہلی	-1243
▁نتیجہ	-1244
▁چاہتے	-1245
▁انگلینڈ	-1246
04	-1247
09	-1248
25	-1249
29	-1250
40	-1251
58	-1252
64	-1253
cb	-1254
ce	-1255
cf	-1256
fe	-1257
ڑک	-1258
▁9	-1259
045	-1260
257	-1261
266	-1262
275	-1263
278	-1264
305	-1265
429	-1266
449	-1267
708	-1268
768	-1269
792	-1270
938	-1271
fcb	-1272
دور	-1273
ستی	-1274
▁اگ	-1275
4275	-1276
5865	-1277
6332	-1278
6459	-1279
انیہ	-1280
▁فار	-1281
▁لگے	-1282
26630	-1283
30550	-1284
▁امید	-1285
▁جیسا	-1286
▁خرید	-1287
▁رہتے	-1288
▁ضرور	-1289
▁ٹیکس	-1290
449045	-1291
▁تعالی	-1292
▁ملاقات	-1293
30550730	-1294
586530550730	-1295
چا	-1296
ادہ	-1297
شتہ	-1298
لاش	-1299
▁آف	-1300
▁آم	-1301
الیس	-1302
▁اہل	-1303
▁دیر	-1304
▁ذکر	-1305
▁شاہ	-1306
▁عاد	-1307
▁نیو	-1308
▁چلے	-1309
▁تلاش	-1310
▁رہیں	-1311
▁قابل	-1312
▁ماضی	-1313
▁مثال	-1314
▁مستق	-1315
▁مفاد	-1316
▁مقاب	-1317
▁افراد	-1318
▁افغان	-1319
▁انصاف	-1320
تر	-1321
زہ	-1322
وش	-1323
بات	-1324
جیب	-1325
▁رح	-1326
▁غم	-1327
ائدہ	-1328
رافی	-1329
وجود	-1330
▁الگ	-1331
▁سڑک	-1332
املات	-1333
▁سارے	-1334
▁ممکن	-1335
▁واضح	-1336
▁کرنی	-1337
▁بالکل	-1338
▁تحریک	-1339
▁تھیں۔	-1340
▁رکھتے	-1341
▁معاملات	-1342
رل	-1343
بوط	-1344
لوں	-1345
نوع	-1346
▁از	-1347
▁ذہ	-1348
▁سط	-1349
▁مظ	-1350
ائیڈ	-1351
▁ایش	-1352
▁باد	-1353
▁جذب	-1354
▁روش	-1355
▁روک	-1356
▁سات	-1357
▁سنا	-1358
▁فری	-1359
▁محض	-1360
▁مرح	-1361
▁پھی	-1362
▁اتنی	-1363
▁احمد	-1364
▁زمین	-1365
▁گزار	-1366
▁ادارے	-1367
▁بنانے	-1368
▁خواہش	-1369
▁ذریعے	-1370
▁رپورٹ	-1371
▁رکھنے	-1372
▁موضوع	-1373
▁ناکام	-1374
▁باوجود	-1375
▁بیماری	-1376
▁دکھائی	-1377
▁ریکارڈ	-1378
من	-1379
ٹا	-1380
ٹو	-1381
ڑھ	-1382
اقت	-1383
داد	-1384
راز	-1385
گار	-1386
ینس	-1387
▁دع	-1388
▁عق	-1389
▁نس	-1390
▁پک	-1391
▁یو	-1392
▁بنگ	-1393
▁جرم	-1394
▁دوب	-1395
▁سرف	-1396
▁سطح	-1397
▁سکے	-1398
▁فرو	-1399
▁ٹور	-1400
▁پیس	-1401
▁یور	-1402
▁بازی	-1403
▁جارہ	-1404
▁کتنے	-1405
▁گئے۔	-1406
▁فٹبال	-1407
▁معیشت	-1408
▁چاہتا	-1409
▁کہانی	-1410
▁کاروبار	-1411
صد	-1412
مب	-1413
وظ	-1414
ٹن	-1415
سیم	-1416
ولی	-1417
ویل	-1418
▁حر	-1419
▁رج	-1420
▁گل	-1421
▁ہز	-1422
ترین	-1423
تیار	-1424
▁آتا	-1425
▁روح	-1426
▁متح	-1427
▁مرت	-1428
▁مید	-1429
ورونا	-1430
▁اتنا	-1431
▁طاقت	-1432
▁عجیب	-1433
▁محمد	-1434
▁گرمی	-1435
▁آزادی	-1436
▁اصلاح	-1437
▁جنہیں	-1438
▁حقیقت	-1439
▁مضبوط	-1440
▁منصوب	-1441
▁والوں	-1442
▁افریقہ	-1443
زد	-1444
عض	-1445
فہ	-1446
وف	-1447
ائع	-1448
اکہ	-1449
جئے	-1450
دان	-1451
شنل	-1452
▁جم	-1453
▁عب	-1454
▁فن	-1455
▁چو	-1456
سٹری	-1457
▁الح	-1458
▁باب	-1459
▁سنگ	-1460
▁سید	-1461
▁شوق	-1462
▁صدر	-1463
▁فون	-1464
▁منہ	-1465
▁ہمت	-1466
▁داری	-1467
▁فیفا	-1468
▁قبول	-1469
▁بنیاد	-1470
▁میدان	-1471
▁پیچھے	-1472
▁کشمیر	-1473
▁کیونکہ	-1474
▁اسٹریلیا	-1475
جر	-1476
دت	-1477
ہے	-1478
اہی	-1479
دود	-1480
ڈیو	-1481
کیٹ	-1482
ینہ	-1483
یادی	-1484
▁بلا	-1485
▁دعو	-1486
▁فرق	-1487
▁لمح	-1488
▁پڑے	-1489
▁پیغ	-1490
▁کیم	-1491
▁گیس	-1492
▁یار	-1493
▁تاہم	-1494
▁ترتی	-1495
▁سرما	-1496
▁شاہد	-1497
▁لیتے	-1498
▁لینڈ	-1499
▁مقدم	-1500
▁پورے	-1501
▁پھول	-1502
▁گیمز	-1503
▁ہندو	-1504
▁جاپان	-1505
▁ونڈوز	-1506
▁کاربن	-1507
▁بنیادی	-1508
▁بھارتی	-1509
▁بہترین	-1510
▁انگریزی	-1511
ربی	-1512
لاں	-1513
ونٹ	-1514
ٹرو	-1515
▁خص	-1516
▁عظ	-1517
▁انع	-1518
▁منظ	-1519
▁نیک	-1520
▁وفا	-1521
▁ویب	-1522
▁کرپ	-1523
▁کمز	-1524
▁گرو	-1525
لاحیت	-1526
▁بچوں	-1527
▁جنرل	-1528
▁روپے	-1529
▁لاکھ	-1530
▁ویسٹ	-1531
▁ٹائم	-1532
▁یونی	-1533
▁بجائے	-1534
▁بنگلہ	-1535
▁حوالے	-1536
▁راستہ	-1537
▁سماجی	-1538
▁فائدہ	-1539
▁وزیراع	-1540
▁پابندی	-1541
▁گاڑیوں	-1542
نم	-1543
وت	-1544
وق	-1545
ہم	-1546
ازہ	-1547
الب	-1548
انک	-1549
ریر	-1550
ناہ	-1551
ٹرز	-1552
ھار	-1553
▁عز	-1554
▁لہ	-1555
▁وط	-1556
▁چا	-1557
انوی	-1558
گرام	-1559
▁بعض	-1560
▁بچے	-1561
▁تحت	-1562
▁ثاب	-1563
▁درد	-1564
▁سخت	-1565
▁لاز	-1566
▁چلا	-1567
▁کیف	-1568
▁اخلا	-1569
▁بھول	-1570
▁جبکہ	-1571
▁محبت	-1572
▁وائر	-1573
▁بنایا	-1574
▁دیکھی	-1575
▁بدترین	-1576
▁سرفراز	-1577
▁سرمایہ	-1578
▁صلاحیت	-1579
▁چھٹائی	-1580
▁ہاتھوں	-1581
گز	-1582
امد	-1583
لیل	-1584
ویر	-1585
یسر	-1586
▁جت	-1587
امیہ	-1588
کاری	-1589
▁آسٹ	-1590
▁رقم	-1591
▁شاع	-1592
▁وطن	-1593
▁کی۔	-1594
▁اعلی	-1595
▁جدید	-1596
▁خوشی	-1597
▁سیاح	-1598
▁عادت	-1599
▁نکال	-1600
▁پائے	-1601
▁ڈائی	-1602
▁کِیا	-1603
▁انڈیز	-1604
▁مستقبل	-1605
▁کورونا	-1606
حک	-1607
سو	-1608
تال	-1609
ریت	-1610
ورہ	-1611
ہور	-1612
یدی	-1613
▁اش	-1614
▁اط	-1615
▁جز	-1616
▁سا	-1617
▁شم	-1618
▁طب	-1619
▁نص	-1620
فاظت	-1621
▁دھو	-1622
▁طری	-1623
▁قیا	-1624
▁مول	-1625
▁ووٹ	-1626
▁کوچ	-1627
▁ہو۔	-1628
▁تصور	-1629
▁ثابت	-1630
▁خواب	-1631
▁رکھے	-1632
▁سوشل	-1633
▁ملکی	-1634
▁مہنگ	-1635
▁تقسیم	-1636
▁جانور	-1637
▁دوران	-1638
▁روشنی	-1639
▁سامان	-1640
▁وائرس	-1641
▁کرپشن	-1642
▁اختلاف	-1643
▁اخلاقی	-1644
▁یونیورس	-1645
جے	-1646
نز	-1647
ٹے	-1648
جات	-1649
ریٹ	-1650
سٹم	-1651
لیز	-1652
ولت	-1653
کری	-1654
یتی	-1655
یشن	-1656
▁لٹ	-1657
بادی	-1658
▁جسے	-1659
▁جلد	-1660
▁حیر	-1661
▁سزا	-1662
▁مال	-1663
▁مجم	-1664
▁مقد	-1665
▁منت	-1666
▁ٹام	-1667
▁کھو	-1668
▁انٹر	-1669
▁حکمت	-1670
▁فطری	-1671
▁لیتا	-1672
▁لینا	-1673
▁مریض	-1674
▁میں۔	-1675
▁ٹینس	-1676
▁ڈرام	-1677
▁امکان	-1678
▁بتایا	-1679
▁جانتا	-1680
▁مغربی	-1681
▁کھانے	-1682
▁امریکی	-1683
▁دوبارہ	-1684
▁انتظامیہ	-1685
▁وزیراعظم	-1686
تل	-1687
زل	-1688
سب	-1689
مق	-1690
اند	-1691
باح	-1692
بول	-1693
لسل	-1694
ورڈ	-1695
▁نر	-1696
▁یک	-1697
ریشن	-1698
لمان	-1699
▁انج	-1700
▁تیر	-1701
▁جسم	-1702
▁مند	-1703
▁پڑا	-1704
ریلین	-1705
▁آغاز	-1706
▁امیر	-1707
▁بنتی	-1708
▁دعوت	-1709
▁پریش	-1710
▁گئیں	-1711
▁گزرے	-1712
▁الفاظ	-1713
▁انتہا	-1714
▁ایمان	-1715
▁تمہیں	-1716
▁مجموع	-1717
▁معاشی	-1718
▁ہوگیا	-1719
▁سوالات	-1720
▁مارکیٹ	-1721
▁پروگرام	-1722
▁کھلاڑیوں	-1723
بے	-1724
شا	-1725
قف	-1726
ادث	-1727
الو	-1728
دال	-1729
دوں	-1730
قات	-1731
قلا	-1732
لیہ	-1733
یسک	-1734
ئیں۔	-1735
▁انھ	-1736
▁برس	-1737
▁برط	-1738
▁متا	-1739
▁نقص	-1740
▁چیئ	-1741
▁گفت	-1742
▁ہار	-1743
▁ہسپ	-1744
▁اوپن	-1745
▁حالت	-1746
▁دیتی	-1747
▁سماج	-1748
▁شعور	-1749
▁ہونی	-1750
▁آسانی	-1751
▁احساس	-1752
▁انقلا	-1753
▁بحران	-1754
▁جائے۔	-1755
▁علاوہ	-1756
▁فیصلے	-1757
▁متحدہ	-1758
▁مقدمہ	-1759
▁پرانے	-1760
▁کیفیت	-1761
▁اختیار	-1762
▁چیئرمین	-1763
▁انتخابات	-1764
حا	-1765
صر	-1766
لک	-1767
ِی	-1768
بتہ	-1769
رات	-1770
قاد	-1771
لاس	-1772
ورا	-1773
▁زب	-1774
▁وڈ	-1775
شریف	-1776
ورتی	-1777
▁دائ	-1778
▁داخ	-1779
▁زیر	-1780
▁عرو	-1781
▁محف	-1782
▁مقر	-1783
▁پڑی	-1784
▁کا۔	-1785
▁گرم	-1786
▁ادھر	-1787
▁الحق	-1788
▁جنگل	-1789
▁رہی۔	-1790
▁سورج	-1791
▁فتوی	-1792
▁قدرت	-1793
▁نوجو	-1794
▁پوچھ	-1795
▁ڈالر	-1796
▁اقبال	-1797
▁البتہ	-1798
▁ترتیب	-1799
▁جانتے	-1800
▁راستے	-1801
▁علاقہ	-1802
▁فراہم	-1803
▁فلموں	-1804
▁انسانی	-1805
▁دیکھنے	-1806
▁معاشرے	-1807
▁کامیابی	-1808
▁خوبصورتی	-1809
▁نوازشریف	-1810
ذا	-1811
ضہ	-1812
وڈ	-1813
ائق	-1814
ابر	-1815
جان	-1816
روس	-1817
عنی	-1818
ندھ	-1819
ویں	-1820
▁رد	-1821
▁عہ	-1822
▁پا	-1823
وریا	-1824
▁امن	-1825
▁بجٹ	-1826
▁برت	-1827
▁برد	-1828
▁خاط	-1829
▁خاک	-1830
▁دھر	-1831
▁سنی	-1832
▁سٹی	-1833
▁سین	-1834
▁سے۔	-1835
▁مرے	-1836
▁گول	-1837
▁آخری	-1838
▁تاکہ	-1839
▁خصوص	-1840
▁رہا۔	-1841
▁شادی	-1842
▁صحیح	-1843
▁عالم	-1844
▁عرصے	-1845
▁لگتی	-1846
▁وسلم	-1847
▁گویا	-1848
▁یعنی	-1849
▁اسٹیٹ	-1850
▁حفاظت	-1851
▁رکھنا	-1852
▁سلمان	-1853
▁مصنوع	-1854
▁نقصان	-1855
▁ٹرافی	-1856
▁پرندے	-1857
▁الیکشن	-1858
▁اندازہ	-1859
▁یونیورسٹی	-1860
جد	-1861
قا	-1862
لت	-1863
لش	-1864
جاج	-1865
راف	-1866
ربہ	-1867
رفت	-1868
رہے	-1869
▁اٹ	-1870
▁سف	-1871
▁فل	-1872
▁ٹو	-1873
▁پل	-1874
▁ہل	-1875
▁امر	-1876
▁باک	-1877
▁خال	-1878
▁دیش	-1879
▁صلی	-1880
▁غور	-1881
▁مشر	-1882
▁پچھ	-1883
▁پہچ	-1884
▁کوئ	-1885
ارفین	-1886
▁ایکس	-1887
▁بلند	-1888
▁بنتا	-1889
▁بورڈ	-1890
▁دلیل	-1891
▁دیا۔	-1892
▁دینی	-1893
▁ساری	-1894
▁سنبھ	-1895
▁قدیم	-1896
▁مثبت	-1897
▁مخال	-1898
▁مزاج	-1899
▁ملنے	-1900
▁ڈیسک	-1901
▁ہزار	-1902
▁یورپ	-1903
▁باتوں	-1904
▁تبدیل	-1905
▁تعداد	-1906
▁روانہ	-1907
▁متاثر	-1908
▁مزدور	-1909
▁مشہور	-1910
▁معمول	-1911
▁پالیس	-1912
▁کمپیو	-1913
▁گزشتہ	-1914
▁احتجاج	-1915
▁اداکار	-1916
▁جاسکتا	-1917
▁خاندان	-1918
▁صارفین	-1919
▁علاقوں	-1920
▁نوجوان	-1921
▁افغانستان	-1922
ضے	-1923
فس	-1924
ارم	-1925
افی	-1926
قید	-1927
وشی	-1928
کیل	-1929
▁تہ	-1930
▁صد	-1931
▁صف	-1932
▁صن	-1933
▁لن	-1934
اہوں	-1935
جودہ	-1936
▁آکس	-1937
▁اسک	-1938
▁حلق	-1939
▁دعا	-1940
▁زرد	-1941
▁سلس	-1942
▁مرک	-1943
▁ملی	-1944
▁ملے	-1945
▁پتہ	-1946
▁چڑھ	-1947
وزیشن	-1948
▁بزنس	-1949
▁دیدی	-1950
▁سربر	-1951
▁فطرت	-1952
▁لیڈر	-1953
▁مقرر	-1954
▁منزل	-1955
▁وجود	-1956
▁پلان	-1957
▁پہاڑ	-1958
▁چاہے	-1959
▁اخبار	-1960
▁تنقید	-1961
▁ریلیز	-1962
▁سمجھا	-1963
▁مرتبہ	-1964
▁ملازم	-1965
▁کبھار	-1966
▁کمزور	-1967
▁موجودہ	-1968
▁آکسائیڈ	-1969
رڈ	-1970
سن	-1971
کپ	-1972
ائب	-1973
ائج	-1974
انگ	-1975
بئی	-1976
بیت	-1977
تاد	-1978
جیح	-1979
یمی	-1980
▁خد	-1981
▁خز	-1982
▁دش	-1983
▁وع	-1984
▁چن	-1985
▁ارب	-1986
▁جنم	-1987
▁درو	-1988
▁دفا	-1989
▁سبب	-1990
▁شان	-1991
▁لفظ	-1992
▁ویل	-1993
▁ٹوٹ	-1994
▁کرن	-1995
▁ہدا	-1996
▁ہیر	-1997
▁براہ	-1998
▁توجہ	-1999
▁حادث	-2000
▁خارج	-2001
▁درخت	-2002
▁رحمت	-2003
▁شرکت	-2004
▁غریب	-2005
▁فلاں	-2006
▁قریب	-2007
▁قیام	-2008
▁لینے	-2009
▁میٹھ	-2010
▁نمائ	-2011
▁ورنہ	-2012
▁چاند	-2013
▁چھوٹ	-2014
▁گھنٹ	-2015
▁برابر	-2016
▁ترجیح	-2017
▁فروخت	-2018
▁مصباح	-2019
▁مقبول	-2020
▁پرانی	-2021
▁چاہئے	-2022
▁گفتگو	-2023
▁آنکھوں	-2024
▁انعقاد	-2025
▁خاموشی	-2026
▁انڈسٹری	-2027
▁ہندوستان	-2028
طی	-2029
۔۔	-2030
انس	-2031
دین	-2032
شتے	-2033
ولہ	-2034
ٹرن	-2035
ٹرک	-2036
▁حص	-2037
▁رخ	-2038
▁زخ	-2039
ابطہ	-2040
ترال	-2041
قرار	-2042
ٹرول	-2043
یدگی	-2044
▁اجت	-2045
▁اقد	-2046
▁ایر	-2047
▁تنا	-2048
▁جون	-2049
▁سنچ	-2050
▁شدت	-2051
▁شری	-2052
▁طلب	-2053
▁فتح	-2054
▁فرد	-2055
▁لوٹ	-2056
▁نور	-2057
▁کلب	-2058
▁آسان	-2059
▁بارش	-2060
▁بھٹو	-2061
▁توقع	-2062
▁تیزی	-2063
▁جلدی	-2064
▁حضرت	-2065
▁خاطر	-2066
▁درجہ	-2067
▁درست	-2068
▁رہنے	-2069
▁سابق	-2070
▁سونے	-2071
▁سیکھ	-2072
▁عروج	-2073
▁علاج	-2074
▁لکھا	-2075
▁محنت	-2076
▁میسر	-2077
▁کتنا	-2078
▁کروں	-2079
▁بیٹھے	-2080
▁جائزہ	-2081
▁زمانہ	-2082
▁فلمیں	-2083
▁مسلسل	-2084
▁چترال	-2085
▁ہدایت	-2086
▁تمہاری	-2087
▁معمولی	-2088
▁پیداوار	-2089
اپ	-2090
صل	-2091
وک	-2092
آمد	-2093
اشت	-2094
ختی	-2095
مود	-2096
نٹی	-2097
▁بخ	-2098
▁حم	-2099
▁دس	-2100
▁چک	-2101
اتین	-2102
جنسی	-2103
▁افو	-2104
▁الز	-2105
▁بیر	-2106
▁خطر	-2107
▁روس	-2108
▁زور	-2109
▁سری	-2110
▁سکا	-2111
▁صاف	-2112
▁عدم	-2113
▁عزم	-2114
▁ماس	-2115
▁آئین	-2116
▁آئیں	-2117
▁بھی۔	-2118
▁ترکی	-2119
▁دانش	-2120
▁زندہ	-2121
▁سسٹم	-2122
▁سندھ	-2123
▁ضائع	-2124
▁طلاق	-2125
▁عرصہ	-2126
▁لمبی	-2127
▁مسجد	-2128
▁مقبو	-2129
▁پڑتا	-2130
▁چینی	-2131
▁کروڑ	-2132
▁استاد	-2133
▁بنائے	-2134
▁بیٹنگ	-2135
▁تحریر	-2136
▁علاقے	-2137
▁نیوزی	-2138
▁واقعہ	-2139
▁اداروں	-2140
▁انقلاب	-2141
▁برداشت	-2142
▁تاریخی	-2143
▁تعلقات	-2144
▁جمہوری	-2145
▁خواتین	-2146
▁روایتی	-2147
▁سرکاری	-2148
▁معاملے	-2149
▁مقابلے	-2150
▁ناکامی	-2151
▁چیمپئنز	-2152
جم	-2153
دھ	-2154
رض	-2155
زن	-2156
سے	-2157
ٹل	-2158
چہ	-2159
ڈا	-2160
گت	-2161
ئین	-2162
ایت	-2163
طور	-2164
فرت	-2165
فیہ	-2166
ناک	-2167
وٹی	-2168
گیا	-2169
▁آہ	-2170
▁ئی	-2171
▁طے	-2172
▁ہج	-2173
ائنس	-2174
اہمی	-2175
بتلا	-2176
ہرست	-2177
▁بنی	-2178
▁بنے	-2179
▁بیل	-2180
▁خات	-2181
▁خلی	-2182
▁دبا	-2183
▁ذرا	-2184
▁سون	-2185
▁سیر	-2186
▁قبل	-2187
▁قدم	-2188
▁لطف	-2189
▁مہر	-2190
▁کرک	-2191
▁ہنگ	-2192
ائیاں	-2193
ائیکل	-2194
▁آئے۔	-2195
▁آزما	-2196
▁اسکو	-2197
▁اوپر	-2198
▁بالی	-2199
▁تھوڑ	-2200
▁حساب	-2201
▁سکیں	-2202
▁عامر	-2203
▁لائن	-2204
▁نفرت	-2205
▁ویسے	-2206
▁چلتا	-2207
▁چلتے	-2208
▁کرکے	-2209
▁کمرے	-2210
▁آملیٹ	-2211
▁اچانک	-2212
▁تصویر	-2213
▁عبدال	-2214
▁مبتلا	-2215
▁ویلتھ	-2216
▁پیشکش	-2217
▁پیغام	-2218
▁افریدی	-2219
▁ایفیکٹ	-2220
▁برقرار	-2221
▁حکمران	-2222
▁دلچسپی	-2223
▁سربراہ	-2224
▁انتہائی	-2225
▁انسانوں	-2226
▁کمپنیوں	-2227
▁مسلمانوں	-2228
اخ	-2229
خر	-2230
طل	-2231
قے	-2232
چے	-2233
اتح	-2234
احد	-2235
افظ	-2236
انڈ	-2237
اہے	-2238
راض	-2239
سٹر	-2240
فرد	-2241
لیت	-2242
ھیر	-2243
▁تس	-2244
▁نت	-2245
▁ٹک	-2246
▁پن	-2247
▁چم	-2248
بادت	-2249
بادل	-2250
ریبا	-2251
▁آسم	-2252
▁آمد	-2253
▁بلے	-2254
▁ذہن	-2255
▁طوف	-2256
▁محک	-2257
▁معذ	-2258
▁ناق	-2259
▁ویز	-2260
▁پتا	-2261
▁کئے	-2262
▁گور	-2263
ائیگی	-2264
▁آزاد	-2265
▁اتنے	-2266
▁تازہ	-2267
▁جنون	-2268
▁سرگر	-2269
▁سمیت	-2270
▁صنعت	-2271
▁طویل	-2272
▁علیہ	-2273
▁مقصد	-2274
▁ملیں	-2275
▁واحد	-2276
▁پیسے	-2277
▁ہوسک	-2278
▁اثرات	-2279
▁اخلاق	-2280
▁طریقہ	-2281
▁محدود	-2282
▁محفوظ	-2283
▁مسترد	-2284
▁مقامی	-2285
▁منفرد	-2286
▁ہوگئے	-2287
▁امریکا	-2288
▁تقریبا	-2289
▁جائیں۔	-2290
▁زرداری	-2291
▁قیمتیں	-2292
▁مطالعہ	-2293
▁اداکارہ	-2294
▁انسانیت	-2295
▁جماعتوں	-2296
▁آسٹریلین	-2297
حہ	-2298
گا	-2299
اوی	-2300
اڑی	-2301
بیا	-2302
راپ	-2303
ریم	-2304
سٹک	-2305
فتے	-2306
لمی	-2307
لوے	-2308
لیے	-2309
ندن	-2310
یاب	-2311
▁بگ	-2312
▁مب	-2313
▁وح	-2314
ائیٹ	-2315
ایا۔	-2316
سمین	-2317
لائی	-2318
وارڈ	-2319
یلنج	-2320
▁آنا	-2321
▁ایڈ	-2322
▁برا	-2323
▁بری	-2324
▁دیے	-2325
▁ریٹ	-2326
▁زلز	-2327
▁سلط	-2328
▁سپر	-2329
▁شائ	-2330
▁شنا	-2331
▁صدی	-2332
▁ضیا	-2333
▁عید	-2334
▁لبر	-2335
▁مصر	-2336
▁منق	-2337
▁ناف	-2338
▁نسل	-2339
▁ووڈ	-2340
▁ٹیک	-2341
▁پلا	-2342
▁کرل	-2343
▁یکس	-2344
▁آرام	-2345
▁اختر	-2346
▁بیٹے	-2347
▁تھری	-2348
▁خانہ	-2349
▁دلکش	-2350
▁رہنا	-2351
▁شعبے	-2352
▁طالب	-2353
▁عظیم	-2354
▁میاں	-2355
▁ٹرین	-2356
▁کاری	-2357
▁کامن	-2358
▁کتنی	-2359
▁کمال	-2360
▁کورٹ	-2361
▁کیا۔	-2362
▁ہفتے	-2363
▁اجتما	-2364
▁ایشین	-2365
▁بیٹھا	-2366
▁سنچری	-2367
▁عبادت	-2368
▁محمود	-2369
▁مرحلے	-2370
▁چیلنج	-2371
▁اعتبار	-2372
▁انٹرنی	-2373
▁ایوارڈ	-2374
▁دوستوں	-2375
▁مقابلہ	-2376
▁مقامات	-2377
▁پریشان	-2378
▁بیٹسمین	-2379
▁خوبصورت	-2380
▁سٹریلیا	-2381
دف	-2382
طر	-2383
و۔	-2384
انت	-2385
حاظ	-2386
ذرب	-2387
ساب	-2388
لوب	-2389
ویت	-2390
پار	-2391
ہاں	-2392
ہوں	-2393
یسی	-2394
یند	-2395
▁آل	-2396
▁ست	-2397
▁لب	-2398
▁وض	-2399
انیے	-2400
رائی	-2401
زدیک	-2402
ودار	-2403
یائی	-2404
▁اتح	-2405
▁ارت	-2406
▁ایٹ	-2407
▁ایپ	-2408
▁بجا	-2409
▁بیچ	-2410
▁تنہ	-2411
▁جنا	-2412
▁زدہ	-2413
▁سبز	-2414
▁شکر	-2415
▁طبی	-2416
▁عقل	-2417
▁عہد	-2418
▁فرم	-2419
▁لٹک	-2420
▁لگی	-2421
▁نفا	-2422
▁پاگ	-2423
▁پیک	-2424
▁گلی	-2425
پارٹی	-2426
▁آذرب	-2427
▁اظہر	-2428
▁اٹھا	-2429
▁اگلے	-2430
▁بولی	-2431
▁بھری	-2432
▁جھوٹ	-2433
▁خطرہ	-2434
▁سازی	-2435
▁سکے۔	-2436
▁لازم	-2437
▁لحاظ	-2438
▁موسی	-2439
▁نشان	-2440
▁وسطی	-2441
▁وسیم	-2442
▁کرسک	-2443
▁کھڑا	-2444
▁کیمپ	-2445
▁کینی	-2446
▁گھوم	-2447
▁آبادی	-2448
▁افسوس	-2449
▁انگلش	-2450
▁اہمیت	-2451
▁بحالی	-2452
▁بنائی	-2453
▁تعمیر	-2454
▁جارہا	-2455
▁خوشبو	-2456
▁زمانے	-2457
▁سامنا	-2458
▁سمندر	-2459
▁طوفان	-2460
▁فنکار	-2461
▁فہرست	-2462
▁محکمہ	-2463
▁مسئلے	-2464
▁مصروف	-2465
▁مقدمے	-2466
▁ملتان	-2467
▁مناسب	-2468
▁نزدیک	-2469
▁وزارت	-2470
▁ٹیموں	-2471
▁پرندہ	-2472
▁پہچان	-2473
▁کیجئے	-2474
▁گھنٹے	-2475
▁احتساب	-2476
▁امتحان	-2477
▁حکومتی	-2478
▁شاندار	-2479
▁آذربائی	-2480
▁اقدامات	-2481
▁برطانوی	-2482
▁پیپلزپارٹی	-2483
اض	-2484
دل	-2485
صف	-2486
طہ	-2487
ڈو	-2488
یے	-2489
ائز	-2490
ائس	-2491
ائو	-2492
امہ	-2493
تیں	-2494
زمت	-2495
منی	-2496
واں	-2497
ونچ	-2498
▁جر	-2499
▁زر	-2500
تماد	-2501
تمام	-2502
حکام	-2503
ردست	-2504
مبلی	-2505
▁آزم	-2506
▁اتر	-2507
▁اول	-2508
▁ترک	-2509
▁راز	-2510
▁سرخ	-2511
▁سکھ	-2512
▁شرم	-2513
▁شہز	-2514
▁فیس	-2515
▁قتل	-2516
▁ماب	-2517
▁مطم	-2518
▁واب	-2519
▁وبا	-2520
▁پود	-2521
▁چھپ	-2522
▁کوہ	-2523
انائی	-2524
▁اصول	-2525
▁انتق	-2526
▁بارہ	-2527
▁باری	-2528
▁بننے	-2529
▁خطرے	-2530
▁دکھا	-2531
▁سارا	-2532
▁سنتا	-2533
▁شدید	-2534
▁فاتح	-2535
▁فلاح	-2536
▁قائد	-2537
▁لبرل	-2538
▁لندن	-2539
▁ماہر	-2540
▁نماز	-2541
▁ٹیکن	-2542
▁پھنس	-2543
▁پہلو	-2544
▁کھول	-2545
▁کیسی	-2546
▁گرفت	-2547
▁ہیرو	-2548
▁آہستہ	-2549
▁احباب	-2550
▁انھوں	-2551
▁تجربہ	-2552
▁تشکیل	-2553
▁جذبات	-2554
▁حقائق	-2555
▁خارجہ	-2556
▁رجحان	-2557
▁سالوں	-2558
▁سوائے	-2559
▁سپریم	-2560
▁لکھنے	-2561
▁لگانے	-2562
▁معذرت	-2563
▁نتائج	-2564
▁ویڈیو	-2565
▁پچھلے	-2566
▁پہنچی	-2567
▁چھوٹی	-2568
▁کمیٹی	-2569
▁کھیلا	-2570
▁ہوتا۔	-2571
▁ہوگئی	-2572
▁آپریشن	-2573
▁اسمبلی	-2574
▁اعتماد	-2575
▁اہتمام	-2576
▁علامات	-2577
▁قیمتوں	-2578
▁متبادل	-2579
▁ملازمت	-2580
▁اجتماعی	-2581
▁ادائیگی	-2582
▁استحکام	-2583
▁توانائی	-2584
▁جماعتیں	-2585
▁کمپیوٹر	-2586
خو	-2587
ذر	-2588
رگ	-2589
سا	-2590
شر	-2591
ئیے	-2592
احت	-2593
افر	-2594
افٹ	-2595
امت	-2596
اون	-2597
بری	-2598
صاب	-2599
فتہ	-2600
میٹ	-2601
وسہ	-2602
ٹری	-2603
ٹھی	-2604
ڈیم	-2605
کنگ	-2606
ہیز	-2607
یکا	-2608
▁حد	-2609
▁رش	-2610
▁عص	-2611
▁ند	-2612
▁وق	-2613
ائے۔	-2614
ادری	-2615
صادی	-2616
طلاح	-2617
مالی	-2618
وامی	-2619
یکشن	-2620
▁آصف	-2621
▁اسپ	-2622
▁تائ	-2623
▁تھو	-2624
▁خرچ	-2625
▁راج	-2626
▁عزت	-2627
▁فلس	-2628
▁فیض	-2629
▁ملز	-2630
▁منی	-2631
▁موت	-2632
▁نار	-2633
▁نبی	-2634
▁نفس	-2635
▁وار	-2636
▁ویر	-2637
▁ٹاک	-2638
▁پہن	-2639
▁گری	-2640
▁ہدف	-2641
▁ہی۔	-2642
▁افسر	-2643
▁تحفظ	-2644
▁جتنا	-2645
▁جرمن	-2646
▁خالی	-2647
▁دنوں	-2648
▁رکھی	-2649
▁رہے۔	-2650
▁زائد	-2651
▁سازش	-2652
▁سیمی	-2653
▁شراب	-2654
▁غلام	-2655
▁فضول	-2656
▁مارچ	-2657
▁مشرف	-2658
▁مقام	-2659
▁موقف	-2660
▁نافذ	-2661
▁پھیل	-2662
▁چائے	-2663
▁کیری	-2664
▁گناہ	-2665
▁ہجوم	-2666
▁اتحاد	-2667
▁اسٹاک	-2668
▁اعصاب	-2669
▁افواج	-2670
▁اندوز	-2671
▁انکار	-2672
▁بازار	-2673
▁بولنے	-2674
▁خزانہ	-2675
▁خصوصی	-2676
▁سائنس	-2677
▁سمجھے	-2678
▁سوچتا	-2679
▁شخصیت	-2680
▁شکریہ	-2681
▁عدلیہ	-2682
▁عوامی	-2683
▁قوتیں	-2684
▁مائیک	-2685
▁مانتے	-2686
▁مقابل	-2687
▁مقدار	-2688
▁پرہیز	-2689
▁پوچھا	-2690
▁چونکہ	-2691
▁چیزیں	-2692
▁گئیں۔	-2693
▁ہوئی۔	-2694
▁اصطلاح	-2695
▁بیٹھنے	-2696
▁جاپانی	-2697
▁دیکھنا	-2698
▁سمجھنے	-2699
▁متعارف	-2700
▁منظوری	-2701
▁پالیسی	-2702
▁اقتصادی	-2703
▁جانوروں	-2704
▁منصوبوں	-2705
▁ڈاکٹروں	-2706
▁آذربائیجان	-2707
رک	-2708
شے	-2709
ڈل	-2710
ھا	-2711
ئیر	-2712
ادم	-2713
ادو	-2714
اسی	-2715
افت	-2716
باز	-2717
جھے	-2718
دری	-2719
زاج	-2720
سنگ	-2721
نما	-2722
ہے۔	-2723
▁آش	-2724
▁تف	-2725
▁تے	-2726
▁حت	-2727
▁پت	-2728
▁پش	-2729
▁ڈب	-2730
▁کچ	-2731
▁ھو	-2732
▁ہٹ	-2733
ثریت	-2734
خصوص	-2735
لیمی	-2736
گزیر	-2737
▁آٹھ	-2738
▁افس	-2739
▁باغ	-2740
▁بہر	-2741
▁جام	-2742
▁روب	-2743
▁سرح	-2744
▁سکہ	-2745
▁صدا	-2746
▁فضا	-2747
▁قلم	-2748
▁محت	-2749
▁مضم	-2750
▁معز	-2751
▁منٹ	-2752
▁مٹی	-2753
▁میل	-2754
▁نگر	-2755
▁ٹکٹ	-2756
▁پیم	-2757
▁پین	-2758
▁پیچ	-2759
▁چلی	-2760
▁چمک	-2761
▁ہنس	-2762
▁ہوچ	-2763
ریٹنگ	-2764
▁ایئر	-2765
▁بطور	-2766
▁بھگت	-2767
▁تاثر	-2768
▁تعین	-2769
▁حافظ	-2770
▁دفاع	-2771
▁رسول	-2772
▁رونا	-2773
▁سننے	-2774
▁عملے	-2775
▁فوری	-2776
▁فکری	-2777
▁لہذا	-2778
▁مذاق	-2779
▁مرضی	-2780
▁مریم	-2781
▁نامے	-2782
▁نفاذ	-2783
▁وغیر	-2784
▁ٹھہر	-2785
▁گورن	-2786
▁اجلاس	-2787
▁ارادہ	-2788
▁باہمی	-2789
▁بھاری	-2790
▁تھوڑی	-2791
▁تیاری	-2792
▁حرارت	-2793
▁حیران	-2794
▁خلیفہ	-2795
▁دھرنے	-2796
▁ریلوے	-2797
▁شہزاد	-2798
▁صورتِ	-2799
▁قدرتی	-2800
▁لازمی	-2801
▁لگائے	-2802
▁مرحلہ	-2803
▁مرکزی	-2804
▁ملکوں	-2805
▁ممبئی	-2806
▁نیشنل	-2807
▁وضاحت	-2808
▁پرستی	-2809
▁پسندی	-2810
▁پشاور	-2811
▁کرلیا	-2812
▁اکثریت	-2813
▁قانونی	-2814
▁ماہرین	-2815
▁مجموعی	-2816
▁معاشرہ	-2817
▁معیاری	-2818
▁ناقابل	-2819
▁ناگزیر	-2820
▁پرندوں	-2821
▁پلاسٹک	-2822
▁ہسپتال	-2823
▁الیکٹرک	-2824
▁دیکھیے۔	-2825
▁مطالبات	-2826
▁مائیکروس	-2827
خی	-2828
زب	-2829
پہ	-2830
ازت	-2831
اقع	-2832
الم	-2833
امن	-2834
بیر	-2835
خیر	-2836
ظیم	-2837
لیف	-2838
نگی	-2839
نیا	-2840
پاک	-2841
کیا	-2842
یدر	-2843
▁اِ	-2844
▁تخ	-2845
▁دف	-2846
▁سج	-2847
▁شپ	-2848
▁طل	-2849
▁عش	-2850
▁قص	-2851
▁نع	-2852
▁گم	-2853
اعدہ	-2854
انین	-2855
وراک	-2856
ورلڈ	-2857
یکٹس	-2858
▁الط	-2859
▁بلو	-2860
▁بیش	-2861
▁ترق	-2862
▁توڑ	-2863
▁خطے	-2864
▁داد	-2865
▁ستم	-2866
▁صبا	-2867
▁عرف	-2868
▁قات	-2869
▁قار	-2870
▁متو	-2871
▁مرد	-2872
▁نیپ	-2873
▁وزن	-2874
▁چلو	-2875
▁چھی	-2876
▁ڈار	-2877
الوجی	-2878
رائیل	-2879
نامنٹ	-2880
ٹرویو	-2881
▁اباد	-2882
▁احسن	-2883
▁اغاز	-2884
▁الاق	-2885
▁انڈے	-2886
▁بہار	-2887
▁جمال	-2888
▁حرکت	-2889
▁سوچا	-2890
▁شمار	-2891
▁عائد	-2892
▁لائٹ	-2893
▁لانے	-2894
▁لیں۔	-2895
▁مجید	-2896
▁مسلط	-2897
▁مودی	-2898
▁نکلے	-2899
▁وعدہ	-2900
▁پاگل	-2901
▁چھٹی	-2902
▁کرلی	-2903
▁کوار	-2904
▁کپور	-2905
▁کھڑے	-2906
▁کہنے	-2907
▁گروہ	-2908
▁ہورہ	-2909
266306	-2910
▁آئینی	-2911
▁آسمان	-2912
▁اسکوا	-2913
▁اضافے	-2914
▁اوقات	-2915
▁بہتری	-2916
▁بیلجی	-2917
▁تائید	-2918
▁تقریب	-2919
▁تنظیم	-2920
▁تھوڑا	-2921
▁تیسرے	-2922
▁جرمنی	-2923
▁جنگلی	-2924
▁جگہوں	-2925
▁درامد	-2926
▁سلسلہ	-2927
▁سوچنا	-2928
▁سڑکوں	-2929
▁مختصر	-2930
▁مطمئن	-2931
▁معروف	-2932
▁منایا	-2933
▁مواقع	-2934
▁مکانی	-2935
▁نتیجے	-2936
▁واپسی	-2937
▁ٹھنڈی	-2938
▁چھوٹے	-2939
▁آزمائش	-2940
▁اعتراض	-2941
▁داستان	-2942
▁زبردست	-2943
▁سائیکل	-2944
▁سمجھتے	-2945
▁قارئین	-2946
▁قوانین	-2947
▁مجموعہ	-2948
▁مخالفت	-2949
▁مریضوں	-2950
▁مطالبہ	-2951
▁ورلڈکپ	-2952
▁پریکٹس	-2953
▁کیریئر	-2954
▁اسرائیل	-2955
▁انٹرویو	-2956
▁ترقیاتی	-2957
▁خواہشات	-2958
▁الاقوامی	-2959
▁فیفاورلڈ	-2960
▁ٹورنامنٹ	-2961
▁مائیکروسافٹ	-2962
چل	-2963
گے	-2964
اصد	-2965
انپ	-2966
اکر	-2967
خوا	-2968
ستے	-2969
عات	-2970
لیق	-2971
میں	-2972
نسر	-2973
نگز	-2974
وان	-2975
ٹرل	-2976
چار	-2977
چین	-2978
ڈنگ	-2979
ڈول	-2980
کھے	-2981
ہرے	-2982
▁اث	-2983
▁جع	-2984
▁سل	-2985
▁عط	-2986
▁لک	-2987
▁وف	-2988
رحال	-2989
فارم	-2990
ورٹی	-2991
گوار	-2992
▁آبی	-2993
▁آرہ	-2994
▁الل	-2995
▁باس	-2996
▁بیک	-2997
▁تجا	-2998
▁جوش	-2999
▁حزب	-3000
▁حوص	-3001
▁رنز	-3002
▁ریف	-3003
▁سنس	-3004
▁سہی	-3005
▁شرٹ	-3006
▁طرز	-3007
▁غرض	-3008
▁فخر	-3009
▁فرا	-3010
▁قصد	-3011
▁مئی	-3012
▁مہم	-3013
▁نظم	-3014
▁نقل	-3015
▁چرا	-3016
▁کھا	-3017
▁ہوس	-3018
خواست	-3019
سٹائل	-3020
▁اخرا	-3021
▁اینڈ	-3022
▁بھلا	-3023
▁بیٹی	-3024
▁جائز	-3025
▁حتمی	-3026
▁حسنِ	-3027
▁حقوق	-3028
▁دولت	-3029
▁سختی	-3030
▁سردی	-3031
▁سوچے	-3032
▁فائر	-3033
▁فریق	-3034
▁فوجی	-3035
▁فیشن	-3036
▁قاتل	-3037
▁قبضہ	-3038
▁لنکا	-3039
▁مارا	-3040
▁مرنے	-3041
▁مشین	-3042
▁مغرب	-3043
▁ملتی	-3044
▁نجات	-3045
▁نصیب	-3046
▁نمون	-3047
▁نکلا	-3048
▁پودے	-3049
▁چلنے	-3050
▁چولہ	-3051
▁ڈھون	-3052
▁کویت	-3053
▁گروپ	-3054
▁ہوکر	-3055
266307	-3056
▁آرمین	-3057
▁اجازت	-3058
▁انڈیا	-3059
▁تجارت	-3060
▁تخلیق	-3061
▁جیتنے	-3062
▁حادثے	-3063
▁حلقوں	-3064
▁دانوں	-3065
▁دیکھو	-3066
▁رابطہ	-3067
▁لکھتے	-3068
▁محترم	-3069
▁مشورہ	-3070
▁معیار	-3071
▁مقاصد	-3072
▁مناظر	-3073
▁مہمان	-3074
▁نامزد	-3075
▁وغیرہ	-3076
▁وفاقی	-3077
▁پہاڑی	-3078
▁کرونا	-3079
▁گوادر	-3080
▁بہرحال	-3081
▁تمہارا	-3082
▁جاسکتی	-3083
▁خیالات	-3084
▁دروازہ	-3085
▁دیکھئے	-3086
▁دیکھتا	-3087
▁دیکھتے	-3088
▁روحانی	-3089
▁شہریوں	-3090
▁فیصلوں	-3091
▁مشکلات	-3092
▁مصنوعی	-3093
▁نمودار	-3094
▁وابستہ	-3095
▁پوزیشن	-3096
▁اسٹیڈیم	-3097
▁الزامات	-3098
▁خوشگوار	-3099
▁درخواست	-3100
▁مصنوعات	-3101
▁مقبولیت	-3102
▁کاروباری	-3103
تو	-3104
حص	-3105
وچ	-3106
گھ	-3107
یف	-3108
احق	-3109
الہ	-3110
ایک	-3111
برا	-3112
ستر	-3113
سیع	-3114
عید	-3115
فیظ	-3116
مین	-3117
کسی	-3118
ہری	-3119
ہوم	-3120
▁اڑ	-3121
▁بٹ	-3122
▁ذر	-3123
▁نگ	-3124
▁کٹ	-3125
▁ہن	-3126
ئنات	-3127
ئیے۔	-3128
اہدے	-3129
ریدی	-3130
زمین	-3131
ودگی	-3132
چینج	-3133
ڈیوں	-3134
کشاف	-3135
ھیرا	-3136
▁ابت	-3137
▁الی	-3138
▁امد	-3139
▁باق	-3140
▁باپ	-3141
▁بجے	-3142
▁بدن	-3143
▁بچا	-3144
▁بید	-3145
▁تاج	-3146
▁تار	-3147
▁جمع	-3148
▁حصے	-3149
▁دہر	-3150
▁روڈ	-3151
▁سبق	-3152
▁لہر	-3153
▁مجب	-3154
▁محب	-3155
▁مدت	-3156
▁مزد	-3157
▁نرخ	-3158
▁ویم	-3159
▁پکڑ	-3160
▁چیف	-3161
▁کاش	-3162
▁کرم	-3163
▁گاہ	-3164
▁گنج	-3165
لینڈز	-3166
▁آشنا	-3167
▁برتن	-3168
▁بزرگ	-3169
▁بوتل	-3170
▁بوجھ	-3171
▁تھام	-3172
▁جناب	-3173
▁جیسی	-3174
▁حیات	-3175
▁حیرت	-3176
▁دائر	-3177
▁ذہنی	-3178
▁رویہ	-3179
▁سنگھ	-3180
▁سیکر	-3181
▁شاعر	-3182
▁شعیب	-3183
▁شہید	-3184
▁صفیہ	-3185
▁فروغ	-3186
▁فورا	-3187
▁قبضے	-3188
▁لاحق	-3189
▁لیئے	-3190
▁لیتی	-3191
▁مادی	-3192
▁مالی	-3193
▁مخلو	-3194
▁مسکر	-3195
▁مشرو	-3196
▁معاف	-3197
▁معزز	-3198
▁ملتا	-3199
▁مناف	-3200
▁نگار	-3201
▁ویزا	-3202
▁چارہ	-3203
▁ڈالا	-3204
▁کارڈ	-3205
▁کالم	-3206
▁گرما	-3207
▁گولڈ	-3208
▁گھبر	-3209
▁اننگز	-3210
▁تجاوز	-3211
▁تکلیف	-3212
▁خلافت	-3213
▁خیالی	-3214
▁دائرے	-3215
▁داخلہ	-3216
▁دیجئے	-3217
▁ساتھی	-3218
▁سنٹرل	-3219
▁شاعری	-3220
▁شمالی	-3221
▁علامہ	-3222
▁لمحات	-3223
▁مشرقی	-3224
▁مضمون	-3225
▁مظاہر	-3226
▁مفہوم	-3227
▁مہارت	-3228
▁میٹھا	-3229
▁نظریں	-3230
▁نکالا	-3231
▁نہایت	-3232
▁واقعے	-3233
▁پہنچے	-3234
▁چاہتی	-3235
▁چولہا	-3236
▁کررہے	-3237
▁کریں۔	-3238
▁انڈونی	-3239
▁اٹھانا	-3240
▁ایجنسی	-3241
▁بربادی	-3242
▁بھروسہ	-3243
▁بیانیے	-3244
▁تنہائی	-3245
▁خطرناک	-3246
▁خوابوں	-3247
▁دستیاب	-3248
▁دنیاوی	-3249
▁روایات	-3250
▁سرحدوں	-3251
▁سنبھال	-3252
▁شائقین	-3253
▁متعلقہ	-3254
▁مولانا	-3255
▁ویسٹرن	-3256
▁پارلیم	-3257
▁پھولوں	-3258
▁پیدائش	-3259
▁کائنات	-3260
▁کوارٹر	-3261
▁آرمینیا	-3262
▁ایشوریا	-3263
▁معلومات	-3264
▁موجودگی	-3265
▁ایکسچینج	-3266
ئم	-3267
خب	-3268
دد	-3269
شو	-3270
عن	-3271
غہ	-3272
غی	-3273
ٹہ	-3274
گل	-3275
ارق	-3276
اسٹ	-3277
اگر	-3278
اہل	-3279
بود	-3280
جاد	-3281
جیے	-3282
حاق	-3283
سوخ	-3284
شتر	-3285
قول	-3286
مار	-3287
مبر	-3288
منٹ	-3289
ندگ	-3290
ومی	-3291
پور	-3292
کھا	-3293
یتھ	-3294
▁جے	-3295
▁رم	-3296
▁عن	-3297
▁نج	-3298
▁نن	-3299
▁گن	-3300
▁یق	-3301
ارات	-3302
اراض	-3303
انکہ	-3304
بانی	-3305
جویز	-3306
طراب	-3307
فرنس	-3308
قینا	-3309
ولوں	-3310
کاوٹ	-3311
▁اجن	-3312
▁اسل	-3313
▁اصف	-3314
▁الج	-3315
▁ایا	-3316
▁بان	-3317
▁تما	-3318
▁تہذ	-3319
▁خون	-3320
▁رام	-3321
▁رین	-3322
▁سرا	-3323
▁سمت	-3324
▁سیٹ	-3325
▁شدہ	-3326
▁شور	-3327
▁شیط	-3328
▁فرض	-3329
▁قرض	-3330
▁مسی	-3331
▁نما	-3332
▁نکھ	-3333
▁وفد	-3334
▁ویک	-3335
▁ٹکر	-3336
▁چیک	-3337
▁ڈائ	-3338
▁ڈیو	-3339
▁کشم	-3340
▁کے۔	-3341
▁گلو	-3342
▁گند	-3343
▁ہرا	-3344
ندگان	-3345
نمائی	-3346
ینڈرڈ	-3347
یکسین	-3348
▁آرہے	-3349
▁ارجن	-3350
▁اساس	-3351
▁امور	-3352
▁انکے	-3353
▁بھرا	-3354
▁بھِی	-3355
▁تیند	-3356
▁جعلی	-3357
▁جہاز	-3358
▁حدود	-3359
▁دئیے	-3360
▁داخل	-3361
▁ذاتی	-3362
▁رواں	-3363
▁روشن	-3364
▁زاوی	-3365
▁عمدہ	-3366
▁غلطی	-3367
▁لائے	-3368
▁لایا	-3369
▁لگتے	-3370
▁لگنا	-3371
▁ماڈل	-3372
▁مختص	-3373
▁مراد	-3374
▁مزاح	-3375
▁مظاہ	-3376
▁منصب	-3377
▁میچز	-3378
▁ناول	-3379
▁نظری	-3380
▁نیچے	-3381
▁واٹس	-3382
▁ورزی	-3383
▁ویسی	-3384
▁ٹائٹ	-3385
▁ٹیلی	-3386
▁پتھر	-3387
▁پروف	-3388
▁پڑھی	-3389
▁چارج	-3390
▁چلتی	-3391
▁ڈراپ	-3392
▁کرو۔	-3393
▁کِسی	-3394
▁کھڑی	-3395
▁کینٹ	-3396
▁گردی	-3397
▁گریز	-3398
▁یاسر	-3399
ئرلینڈ	-3400
ٹرولیم	-3401
▁احتیا	-3402
▁ادارہ	-3403
▁اسحاق	-3404
▁اقدار	-3405
▁انھیں	-3406
▁ایونٹ	-3407
▁ایٹمی	-3408
▁ایکسپ	-3409
▁برسوں	-3410
▁بولتے	-3411
▁بڑھنے	-3412
▁تجویز	-3413
▁تقریر	-3414
▁تقویت	-3415
▁تیسری	-3416
▁جاننے	-3417
▁حوصلہ	-3418
▁خاتون	-3419
▁خوراک	-3420
▁روبوٹ	-3421
▁زبانی	-3422
▁سنائی	-3423
▁سوچنے	-3424
▁شکاری	-3425
▁شہباز	-3426
▁شہریت	-3427
▁عقیدہ	-3428
▁علامت	-3429
▁مابین	-3430
▁مخالف	-3431
▁مخصوص	-3432
▁منتخب	-3433
▁منسوخ	-3434
▁منظور	-3435
▁مہنگا	-3436
▁میٹھے	-3437
▁نظریہ	-3438
▁نیپرا	-3439
▁ٹھنڈا	-3440
▁پرواز	-3441
▁چالیس	-3442
▁چھٹنی	-3443
▁ڈرامے	-3444
▁کاموں	-3445
▁کرکٹر	-3446
▁کوریا	-3447
▁کےلیے	-3448
▁ہوتی۔	-3449
▁یقینا	-3450
▁اسکواڈ	-3451
▁اضطراب	-3452
▁بیانیہ	-3453
▁دیکھیں	-3454
▁رینکنگ	-3455
▁سلامتی	-3456
▁سمجھتا	-3457
▁سمجھنا	-3458
▁فارمیٹ	-3459
▁مزدوری	-3460
▁مطالعے	-3461
▁منصوبہ	-3462
▁ویکسین	-3463
▁پہنچنے	-3464
▁پیغمبر	-3465
▁ہوئیں۔	-3466
▁اپوزیشن	-3467
▁بیلجیئم	-3468
▁حالانکہ	-3469
▁کانفرنس	-3470
▁اسٹینڈرڈ	-3471
اث	-3472
زے	-3473
مع	-3474
اوت	-3475
اہٹ	-3476
رمپ	-3477
روم	-3478
روک	-3479
صرہ	-3480
ظوظ	-3481
عیت	-3482
فتر	-3483
لیو	-3484
میل	-3485
وئی	-3486
وام	-3487
ودی	-3488
ٹتے	-3489
ڈیا	-3490
کتا	-3491
گری	-3492
یفہ	-3493
▁آب	-3494
▁آس	-3495
▁بغ	-3496
▁زد	-3497
▁نچ	-3498
ئنٹی	-3499
ائرم	-3500
ابطے	-3501
ابھی	-3502
احوں	-3503
اللہ	-3504
اہے۔	-3505
رانہ	-3506
رحمن	-3507
نامہ	-3508
ونٹی	-3509
یریا	-3510
▁الم	-3511
▁اون	-3512
▁بٹن	-3513
▁بکھ	-3514
▁بیت	-3515
▁بیگ	-3516
▁تری	-3517
▁تفص	-3518
▁تنگ	-3519
▁جار	-3520
▁جیب	-3521
▁حما	-3522
▁دھا	-3523
▁زخم	-3524
▁شکل	-3525
▁صوب	-3526
▁طنز	-3527
▁ظلم	-3528
▁عرض	-3529
▁عشق	-3530
▁غاز	-3531
▁فضل	-3532
▁لال	-3533
▁لاک	-3534
▁معج	-3535
▁میز	-3536
▁مین	-3537
▁ناد	-3538
▁نری	-3539
▁نوٹ	-3540
▁پان	-3541
▁پکے	-3542
▁پیا	-3543
▁چھڑ	-3544
▁چیخ	-3545
▁کرس	-3546
▁ھوں	-3547
▁یوس	-3548
ائیوں	-3549
ائیٹڈ	-3550
کاروں	-3551
کریاں	-3552
▁اجرا	-3553
▁اخری	-3554
▁امام	-3555
▁بدلے	-3556
▁بلوچ	-3557
▁بھیج	-3558
▁تقاض	-3559
▁جبری	-3560
▁جیتے	-3561
▁حامل	-3562
▁حامی	-3563
▁حروف	-3564
▁حساس	-3565
▁حصول	-3566
▁حفیظ	-3567
▁حملہ	-3568
▁خدشہ	-3569
▁دفتر	-3570
▁دہشت	-3571
▁سانس	-3572
▁سوئی	-3573
▁صادر	-3574
▁طارق	-3575
▁عظمت	-3576
▁غائب	-3577
▁قصور	-3578
▁لانا	-3579
▁لمحہ	-3580
▁لیا۔	-3581
▁مارے	-3582
▁مانی	-3583
▁مشرق	-3584
▁نبات	-3585
▁نشست	-3586
▁نکلی	-3587
▁ویسا	-3588
▁ٹرمپ	-3589
▁پایا	-3590
▁پڑتے	-3591
▁چراغ	-3592
▁ڈھال	-3593
▁کررہ	-3594
▁کچرا	-3595
▁گران	-3596
▁گمان	-3597
ائرمنٹ	-3598
▁اضافی	-3599
▁اقوام	-3600
▁انجام	-3601
▁ایکشن	-3602
▁بتائے	-3603
▁بدلنے	-3604
▁بناتے	-3605
▁بنانا	-3606
▁بڑھتی	-3607
▁تبصرہ	-3608
▁ترکیب	-3609
▁تصادم	-3610
▁تعارف	-3611
▁تعاون	-3612
▁ذریعہ	-3613
▁رکاوٹ	-3614
▁سرگرم	-3615
▁شریعت	-3616
▁فرشتے	-3617
▁فریدی	-3618
▁فلاحی	-3619
▁لطافت	-3620
▁لگانا	-3621
▁ماننا	-3622
▁محظوظ	-3623
▁منتظر	-3624
▁منیجر	-3625
▁ناراض	-3626
▁نارمل	-3627
▁نشانہ	-3628
▁وسائل	-3629
▁ٹھنڈے	-3630
▁پلانٹ	-3631
▁پڑھنے	-3632
▁پہنچا	-3633
▁کردیں	-3634
▁کوئٹہ	-3635
▁کینسر	-3636
▁گیارہ	-3637
▁یقینی	-3638
پاکستان	-3639
▁آفریدی	-3640
▁آلودگی	-3641
▁اعتراف	-3642
▁انتقال	-3643
▁اٹھاتا	-3644
▁اٹھایا	-3645
▁بھابھی	-3646
▁بیٹھتے	-3647
▁جنگلات	-3648
▁سلیکشن	-3649
▁مفادات	-3650
▁موسیقی	-3651
▁نریندر	-3652
▁ٹوئنٹی	-3653
▁کتابیں	-3654
▁کرسکتے	-3655
▁کشیدگی	-3656
▁ہزاروں	-3657
▁اخراجات	-3658
▁امکانات	-3659
▁تقریبات	-3660
▁پاسپورٹ	-3661
▁آسٹریلیا	-3662
▁فرانسیسی	-3663
▁نمائندگی	-3664
▁انٹرنیشنل	-3665
▁بیٹسمینوں	-3666
▁ریٹائرمنٹ	-3667
▁ٹیکنالوجی	-3668
خط	-3669
قل	-3670
مر	-3671
مے	-3672
وث	-3673
وج	-3674
پس	-3675
ہی	-3676
ائف	-3677
ارش	-3678
اطب	-3679
تاح	-3680
تام	-3681
جمہ	-3682
حکم	-3683
حیح	-3684
خوش	-3685
ذیر	-3686
راہ	-3687
ربت	-3688
سلو	-3689
سٹا	-3690
شار	-3691
ضان	-3692
عمل	-3693
نیل	-3694
وسی	-3695
ولر	-3696
ونس	-3697
ویش	-3698
ٹرا	-3699
پول	-3700
پیش	-3701
کرم	-3702
یرے	-3703
یکل	-3704
▁خش	-3705
▁دب	-3706
▁طع	-3707
▁طی	-3708
▁عل	-3709
▁فع	-3710
▁مِ	-3711
▁ڈپ	-3712
امدی	-3713
امزن	-3714
اہلی	-3715
جیے۔	-3716
حصار	-3717
سینے	-3718
شتوں	-3719
لایا	-3720
لیئر	-3721
ماٹر	-3722
ومبر	-3723
ونما	-3724
ٹینا	-3725
پیشل	-3726
ڑیاں	-3727
کریہ	-3728
کھلا	-3729
کیوں	-3730
▁ادھ	-3731
▁اشت	-3732
▁اعل	-3733
▁بیس	-3734
▁بیو	-3735
▁ترے	-3736
▁تعص	-3737
▁جاں	-3738
▁جبر	-3739
▁جلس	-3740
▁جوڑ	-3741
▁حدی	-3742
▁خیز	-3743
▁داغ	-3744
▁درج	-3745
▁دما	-3746
▁دے۔	-3747
▁راش	-3748
▁رفت	-3749
▁روم	-3750
▁سلی	-3751
▁سنج	-3752
▁سچے	-3753
▁سکی	-3754
▁صبر	-3755
▁عطا	-3756
▁غذا	-3757
▁غصہ	-3758
▁فہم	-3759
▁لسی	-3760
▁ماں	-3761
▁مشغ	-3762
▁مقت	-3763
▁مچھ	-3764
▁ناز	-3765
▁نجی	-3766
▁نمک	-3767
▁وین	-3768
▁ٹائ	-3769
▁پوس	-3770
▁پھل	-3771
▁پیٹ	-3772
▁چوہ	-3773
▁چہر	-3774
▁کول	-3775
▁گجر	-3776
▁گلا	-3777
سلونا	-3778
مقابل	-3779
واروں	-3780
▁اثاث	-3781
▁اسکے	-3782
▁اشیا	-3783
▁انشا	-3784
▁انہی	-3785
▁اکرم	-3786
▁ایتھ	-3787
▁بادل	-3788
▁بننا	-3789
▁بھاگ	-3790
▁تنخو	-3791
▁جانی	-3792
▁جوہر	-3793
▁جہاد	-3794
▁حضور	-3795
▁خطاب	-3796
▁دشمن	-3797
▁دکان	-3798
▁دیں۔	-3799
▁رجوع	-3800
▁رسمی	-3801
▁روزہ	-3802
▁زمان	-3803
▁ساکھ	-3804
▁سروس	-3805
▁سعید	-3806
▁سلیم	-3807
▁سکا۔	-3808
▁شوگر	-3809
▁شوہر	-3810
▁شیئر	-3811
▁غالب	-3812
▁فارم	-3813
▁ماسک	-3814
▁مالک	-3815
▁متعد	-3816
▁مجاز	-3817
▁مرتب	-3818
▁ملنا	-3819
▁نوٹس	-3820
▁نہاد	-3821
▁والد	-3822
▁پائی	-3823
▁پاتا	-3824
▁پاور	-3825
▁پیار	-3826
▁پیسہ	-3827
▁چوتھ	-3828
▁چوری	-3829
▁چہرے	-3830
▁ڈھنگ	-3831
▁کرسی	-3832
▁کلاس	-3833
▁کپڑے	-3834
▁کہتی	-3835
▁ہالی	-3836
▁ہلکی	-3837
▁یونس	-3838
▁ادوار	-3839
▁اسٹار	-3840
▁اونچا	-3841
▁ایران	-3842
▁باکسر	-3843
▁بدلتی	-3844
▁برآمد	-3845
▁برامد	-3846
▁بناتا	-3847
▁بڑھتا	-3848
▁بڑھنا	-3849
▁بیشتر	-3850
▁تاخیر	-3851
▁تباہی	-3852
▁تربیت	-3853
▁ترجمہ	-3854
▁تشریف	-3855
▁تشویش	-3856
▁تعبیر	-3857
▁تھائی	-3858
▁جارہی	-3859
▁جنہوں	-3860
▁حضرات	-3861
▁حقیقی	-3862
▁حمایت	-3863
▁درپیش	-3864
▁ذرائع	-3865
▁رائیڈ	-3866
▁رسائی	-3867
▁رمضان	-3868
▁رکھتی	-3869
▁زمینی	-3870
▁سلسلے	-3871
▁سلطنت	-3872
▁سپاہی	-3873
▁سکیں۔	-3874
▁سہولت	-3875
▁سیکٹر	-3876
▁شیطان	-3877
▁شیڈول	-3878
▁صاحبہ	-3879
▁طبقات	-3880
▁لٹکنا	-3881
▁لگائی	-3882
▁مخاطب	-3883
▁مدینہ	-3884
▁مسافر	-3885
▁مہنگی	-3886
▁میڈرڈ	-3887
▁ناخوش	-3888
▁نمونہ	-3889
▁نومبر	-3890
▁ٹائٹل	-3891
▁ٹماٹر	-3892
▁ٹیمیں	-3893
▁پسینے	-3894
▁پھرنے	-3895
▁پھنسے	-3896
▁ڈرائی	-3897
▁کتابی	-3898
▁کرنسی	-3899
▁گامزن	-3900
▁گرانٹ	-3901
▁ہوتے۔	-3902
▁یورپی	-3903
▁آنکھیں	-3904
▁اسپیشل	-3905
▁الرحمن	-3906
▁انحصار	-3907
▁بوتلیں	-3908
▁بڑھانے	-3909
▁تجارتی	-3910
▁تعلیمی	-3911
▁تعینات	-3912
▁توقعات	-3913
▁دیکھیے	-3914
▁سرزمین	-3915
▁مداحوں	-3916
▁مستحکم	-3917
▁مقدمات	-3918
▁منصوبے	-3919
▁نااہلی	-3920
▁نمایاں	-3921
▁پیچیدہ	-3922
▁چوہدری	-3923
▁چھٹیاں	-3924
▁ڈاکٹرز	-3925
▁کمزوری	-3926
▁کنٹرول	-3927
▁کینیڈا	-3928
▁گھومنے	-3929
▁ہوجاتا	-3930
▁ہوجاتے	-3931
▁ہوسکتی	-3932
▁آپریٹنگ	-3933
▁اخبارات	-3934
▁اصلاحات	-3935
▁اعلانیہ	-3936
▁باقاعدہ	-3937
▁برطانیہ	-3938
▁سیکرٹری	-3939
▁ضروریات	-3940
▁مدمقابل	-3941
▁نظریاتی	-3942
▁نوکریاں	-3943
▁اخلاقیات	-3944
▁ارجنٹینا	-3945
▁انگریزوں	-3946
▁بارسلونا	-3947
▁ٹیکسٹائل	-3948
▁پابندیاں	-3949
ئس	-3950
اٹ	-3951
رس	-3952
طع	-3953
غت	-3954
غذ	-3955
فق	-3956
چر	-3957
ڑپ	-3958
کم	-3959
یٹ	-3960
الک	-3961
برد	-3962
بلک	-3963
جوہ	-3964
ذکر	-3965
رزو	-3966
زاز	-3967
زلی	-3968
ستا	-3969
شاہ	-3970
شنز	-3971
غیب	-3972
لبہ	-3973
لتا	-3974
ندا	-3975
وتا	-3976
ولا	-3977
ونک	-3978
ڈال	-3979
ڈین	-3980
کرا	-3981
کوس	-3982
کچھ	-3983
گیر	-3984
ہبی	-3985
یال	-3986
یبت	-3987
یکر	-3988
▁جج	-3989
▁عث	-3990
▁عج	-3991
▁قل	-3992
▁نث	-3993
▁وص	-3994
▁ٹم	-3995
▁چر	-3996
▁کف	-3997
اخلت	-3998
اہمت	-3999
خانے	-4000
دارس	-4001
ذکرہ	-4002
رانی	-4003
ستگی	-4004
قادر	-4005
لادی	-4006
لوار	-4007
ملوں	-4008
وازن	-4009
والے	-4010
وٹنگ	-4011
پرنگ	-4012
پیئن	-4013
یوان	-4014
یوسی	-4015
▁ائے	-4016
▁اسد	-4017
▁الا	-4018
▁انس	-4019
▁ایچ	-4020
▁باش	-4021
▁برہ	-4022
▁بہن	-4023
▁تمھ	-4024
▁جشن	-4025
▁جود	-4026
▁جین	-4027
▁درس	-4028
▁دھم	-4029
▁ذات	-4030
▁رسی	-4031
▁رضی	-4032
▁سرد	-4033
▁شاخ	-4034
▁شبہ	-4035
▁شرط	-4036
▁عنہ	-4037
▁فرح	-4038
▁قاب	-4039
▁مرو	-4040
▁مشن	-4041
▁منس	-4042
▁موڑ	-4043
▁مچا	-4044
▁نقط	-4045
▁نیب	-4046
▁پرا	-4047
▁پگھ	-4048
▁چول	-4049
▁چھا	-4050
▁چھل	-4051
▁ڈیز	-4052
▁کھج	-4053
▁گرہ	-4054
اکرات	-4055
کسیجن	-4056
▁آرزو	-4057
▁آرڈر	-4058
▁ابھر	-4059
▁انکو	-4060
▁اٹھے	-4061
▁بحال	-4062
▁بستر	-4063
▁بقول	-4064
▁بڑھا	-4065
▁تشدد	-4066
▁تعصب	-4067
▁تمغہ	-4068
▁تناز	-4069
▁تیرے	-4070
▁جتنی	-4071
▁جلوس	-4072
▁حیدر	-4073
▁خواص	-4074
▁خوبی	-4075
▁دامن	-4076
▁دبئی	-4077
▁دریا	-4078
▁دعوی	-4079
▁دفعہ	-4080
▁دیئے	-4081
▁روٹی	-4082
▁رویے	-4083
▁رکھو	-4084
▁ریاض	-4085
▁زلمی	-4086
▁سادہ	-4087
▁سنیل	-4088
▁سپرد	-4089
▁علمی	-4090
▁عورت	-4091
▁غربت	-4092
▁غلبہ	-4093
▁فارغ	-4094
▁فتوے	-4095
▁قائل	-4096
▁قسمت	-4097
▁لمبا	-4098
▁لڑتے	-4099
▁لکھے	-4100
▁مانگ	-4101
▁مرکز	-4102
▁مصال	-4103
▁مہذب	-4104
▁مینڈ	-4105
▁وادی	-4106
▁ونڈو	-4107
▁پردہ	-4108
▁پڑتی	-4109
▁چڑھا	-4110
▁چینل	-4111
▁ڈھیر	-4112
▁کبڈی	-4113
▁کردہ	-4114
▁کروا	-4115
▁کرے۔	-4116
▁کہتا	-4117
▁گوشت	-4118
▁ہائے	-4119
▁یورو	-4120
▁یونٹ	-4121
▁یہیں	-4122
اختیار	-4123
▁احسان	-4124
▁احوال	-4125
▁اسلوب	-4126
▁اطلاق	-4127
▁اعزاز	-4128
▁الزام	-4129
▁الیون	-4130
▁انعام	-4131
▁اگرچہ	-4132
▁بائیک	-4133
▁بدلنا	-4134
▁بغاوت	-4135
▁بکھری	-4136
▁بہبود	-4137
▁تذکرہ	-4138
▁تقاضا	-4139
▁تلوار	-4140
▁تنزلی	-4141
▁تیسرا	-4142
▁جرائم	-4143
▁حیوان	-4144
▁خاموش	-4145
▁خرابی	-4146
▁درکار	-4147
▁دستخط	-4148
▁دفاعی	-4149
▁دوستی	-4150
▁دوچار	-4151
▁دھونا	-4152
▁روحان	-4153
▁روکنا	-4154
▁ریڈیو	-4155
▁زلزلی	-4156
▁سائیٹ	-4157
▁سکتے۔	-4158
▁سینئر	-4159
▁شناخت	-4160
▁عادات	-4161
▁عثمان	-4162
▁عرفان	-4163
▁عصبیت	-4164
▁قرآنِ	-4165
▁ماسکو	-4166
▁ماہرہ	-4167
▁متعدد	-4168
▁مجبور	-4169
▁مدارس	-4170
▁مستقل	-4171
▁مسکرا	-4172
▁مشغول	-4173
▁مصیبت	-4174
▁منانے	-4175
▁مہارا	-4176
▁نوازی	-4177
▁نوعیت	-4178
▁نکلنا	-4179
▁ٹھنڈک	-4180
▁پرانا	-4181
▁چوائس	-4182
▁چکوال	-4183
▁ڈھانپ	-4184
▁کرانے	-4185
▁کرایا	-4186
▁کرتے۔	-4187
▁کشمکش	-4188
▁کوہلی	-4189
▁کویتی	-4190
▁کھاتے	-4191
▁کھینچ	-4192
▁کیجیے	-4193
▁گندگی	-4194
▁گیسیں	-4195
▁ہوئیں	-4196
▁ہوئے۔	-4197
▁یونان	-4198
▁یہودی	-4199
▁آکسیجن	-4200
▁اختتام	-4201
▁افسران	-4202
▁امتزاج	-4203
▁انکشاف	-4204
▁باکسنگ	-4205
▁خصوصیت	-4206
▁سرگرمی	-4207
▁شناختی	-4208
▁شہریار	-4209
▁صاحبان	-4210
▁غلطیاں	-4211
▁متوازن	-4212
▁مداخلت	-4213
▁مددگار	-4214
▁مظاہرہ	-4215
▁معززین	-4216
▁مقبوضہ	-4217
▁نفسیات	-4218
▁نگرانی	-4219
▁والدین	-4220
▁ڈراموں	-4221
▁گاڑیاں	-4222
▁گزارنے	-4223
▁گورننس	-4224
▁آئلینڈز	-4225
▁انٹرنیٹ	-4226
▁بھائیوں	-4227
▁تحقیقات	-4228
▁حکمرانی	-4229
▁دہائیوں	-4230
▁سیکورٹی	-4231
▁شریانوں	-4232
▁مذاکرات	-4233
▁ملازمین	-4234
▁مہنگائی	-4235
▁چیمپیئن	-4236
▁کینیڈین	-4237
▁ہسپانوی	-4238
▁چھوڑئیے۔	-4239
▁کمپیوٹرز	-4240
▁یونائیٹڈ	-4241
▁امیدواروں	-4242
▁انڈونیشیا	-4243
▁عبدالقادر	-4244
▁ماحولیاتی	-4245
اذ	-4246
اش	-4247
حد	-4248
دے	-4249
زر	-4250
ضا	-4251
عب	-4252
لن	-4253
مپ	-4254
ِل	-4255
یڈ	-4256
▁؟	-4257
▁ئ	-4258
بیع	-4259
تاب	-4260
تمل	-4261
توں	-4262
جری	-4263
جنٹ	-4264
راک	-4265
رتی	-4266
رکہ	-4267
زار	-4268
سوں	-4269
عکس	-4270
فاق	-4271
فیق	-4272
ملک	-4273
میز	-4274
میم	-4275
ناز	-4276
نڈا	-4277
نڈر	-4278
نڈے	-4279
ومت	-4280
ونت	-4281
وید	-4282
ویہ	-4283
ٹیف	-4284
پنے	-4285
پہر	-4286
پیگ	-4287
کام	-4288
گئے	-4289
گون	-4290
یبی	-4291
یرا	-4292
یرہ	-4293
▁آت	-4294
▁بم	-4295
▁تد	-4296
▁تل	-4297
▁دم	-4298
▁رز	-4299
▁سح	-4300
▁شش	-4301
▁شل	-4302
▁غر	-4303
▁فس	-4304
▁چڑ	-4305
▁گذ	-4306
▁ہت	-4307
ائقہ	-4308
افتی	-4309
التی	-4310
انچہ	-4311
دمات	-4312
راصل	-4313
فقار	-4314
لانگ	-4315
لقین	-4316
لیاں	-4317
مانت	-4318
ملکت	-4319
میری	-4320
ناہٹ	-4321
واری	-4322
وداع	-4323
وٹوک	-4324
ویتا	-4325
پمنٹ	-4326
کوئی	-4327
کیلے	-4328
▁اجر	-4329
▁ادب	-4330
▁ارض	-4331
▁افت	-4332
▁باض	-4333
▁برف	-4334
▁بسی	-4335
▁بنو	-4336
▁بوٹ	-4337
▁بچھ	-4338
▁تھم	-4339
▁جول	-4340
▁دوں	-4341
▁رحم	-4342
▁روٹ	-4343
▁رکن	-4344
▁ریگ	-4345
▁ساح	-4346
▁سرم	-4347
▁سرو	-4348
▁سلو	-4349
▁سنت	-4350
▁سود	-4351
▁شرح	-4352
▁طال	-4353
▁عاص	-4354
▁غصے	-4355
▁فلا	-4356
▁فور	-4357
▁فکس	-4358
▁فیم	-4359
▁قرب	-4360
▁قری	-4361
▁لنک	-4362
▁لہو	-4363
▁مرا	-4364
▁معت	-4365
▁مفت	-4366
▁ناں	-4367
▁نبھ	-4368
▁نقد	-4369
▁نقش	-4370
▁نیت	-4371
▁وکٹ	-4372
▁ٹاپ	-4373
▁ٹری	-4374
▁چوک	-4375
▁ڈیل	-4376
▁کاا	-4377
▁گدھ	-4378
▁گرا	-4379
▁گلے	-4380
▁گہر	-4381
▁گین	-4382
▁ہیڈ	-4383
امیوں	-4384
انگیر	-4385
▁آخرت	-4386
▁آمین	-4387
▁استق	-4388
▁اسکا	-4389
▁المی	-4390
▁امین	-4391
▁بالر	-4392
▁بتوں	-4393
▁بلاگ	-4394
▁بنیں	-4395
▁بچپن	-4396
▁بیگم	-4397
▁جتنے	-4398
▁جوان	-4399
▁جھلک	-4400
▁حامد	-4401
▁حملے	-4402
▁خالق	-4403
▁خصلت	-4404
▁دراز	-4405
▁دہلی	-4406
▁ذوال	-4407
▁رانڈ	-4408
▁رشتہ	-4409
▁روزم	-4410
▁ریال	-4411
▁سائٹ	-4412
▁شخصی	-4413
▁شرٹس	-4414
▁شریک	-4415
▁شگون	-4416
▁ضمنی	-4417
▁عباس	-4418
▁عربی	-4419
▁فرقت	-4420
▁فرما	-4421
▁فلور	-4422
▁فیلڈ	-4423
▁قدرے	-4424
▁لائق	-4425
▁لباس	-4426
▁لیکس	-4427
▁محاذ	-4428
▁محفل	-4429
▁مراک	-4430
▁مشیر	-4431
▁مفتی	-4432
▁ملاح	-4433
▁ملوث	-4434
▁مکان	-4435
▁میئر	-4436
▁نسبت	-4437
▁وارم	-4438
▁وسعت	-4439
▁وسیع	-4440
▁وکیل	-4441
▁وہیں	-4442
▁پذیر	-4443
▁پرست	-4444
▁پناہ	-4445
▁پوسٹ	-4446
▁پگھل	-4447
▁پینٹ	-4448
▁چلیں	-4449
▁چھاپ	-4450
▁چھین	-4451
▁کلام	-4452
▁کورس	-4453
▁گندم	-4454
▁ہرگز	-4455
▁ہستی	-4456
▁ہندی	-4457
وٹوکول	-4458
▁ابتدا	-4459
▁ادراک	-4460
▁اطراف	-4461
▁بالنگ	-4462
▁بدولت	-4463
▁برباد	-4464
▁برعکس	-4465
▁بھرتی	-4466
▁تاہوں	-4467
▁تلقین	-4468
▁تہذیب	-4469
▁جارہے	-4470
▁جاوید	-4471
▁دراصل	-4472
▁دوپہر	-4473
▁دھاگہ	-4474
▁رویوں	-4475
▁رہنما	-4476
▁ریفری	-4477
▁ستمبر	-4478
▁سراسر	-4479
▁سلامت	-4480
▁سوچتے	-4481
▁سپورٹ	-4482
▁سکتی۔	-4483
▁سیاحت	-4484
▁شاہین	-4485
▁شویتا	-4486
▁ضمانت	-4487
▁طریقے	-4488
▁علموں	-4489
▁قیامت	-4490
▁لڑائی	-4491
▁محروم	-4492
▁مشتمل	-4493
▁مظلوم	-4494
▁معانی	-4495
▁مملکت	-4496
▁مِسٹر	-4497
▁نمائش	-4498
▁نوکری	-4499
▁واقعی	-4500
▁ٹرانس	-4501
▁پائیں	-4502
▁پڑتا۔	-4503
▁پڑھنا	-4504
▁پکانا	-4505
▁پیروں	-4506
▁چلانے	-4507
▁چوتھا	-4508
▁چھوٹا	-4509
▁چہروں	-4510
▁ڈبلیو	-4511
▁کاررو	-4512
▁کردیے	-4513
▁ہوائی	-4514
▁ہوچکا	-4515
▁اعتدال	-4516
▁افسردہ	-4517
▁الوداع	-4518
▁انتشار	-4519
▁ایرانی	-4520
▁ایسٹرن	-4521
▁بزرگوں	-4522
▁بھرپور	-4523
▁بیداری	-4524
▁خامیاں	-4525
▁خامیوں	-4526
▁خیالوں	-4527
▁دکھانے	-4528
▁راہنما	-4529
▁سپلائی	-4530
▁شاہکار	-4531
▁شروعات	-4532
▁طالبان	-4533
▁طلاقیں	-4534
▁عدالتی	-4535
▁فائرنگ	-4536
▁مصالحہ	-4537
▁مضبوطی	-4538
▁معاویہ	-4539
▁معاہدے	-4540
▁نمائشی	-4541
▁پولینڈ	-4542
▁پہنانے	-4543
▁چنانچہ	-4544
▁چھلانگ	-4545
▁کارآمد	-4546
▁کرسکتا	-4547
▁کرکٹرز	-4548
▁کھیلنا	-4549
▁کیساتھ	-4550
▁ہوجائے	-4551
▁ہوجانے	-4552
▁یادگار	-4553
▁یکسوئی	-4554
▁انتخابی	-4555
▁باضابطہ	-4556
▁بنیادیں	-4557
▁جمہوریہ	-4558
▁جہانگیر	-4559
▁روحانیت	-4560
▁سنسناہٹ	-4561
▁مزدوروں	-4562
▁مسکراہٹ	-4563
▁معاشرتی	-4564
▁مہربانی	-4565
▁کہانیوں	-4566
▁بیماریوں	-4567
▁ذوالفقار	-4568
▁پالیسیوں	-4569
▁پروٹوکول	-4570
▁کردیاگیا	-4571
▁گیارہویں	-4572
آج	-4573
بخ	-4574
حی	-4575
رپ	-4576
شم	-4577
ضم	-4578
مح	-4579
مٹ	-4580
گس	-4581
ہن	-4582
یط	-4583
▁ے	-4584
ابع	-4585
ابی	-4586
اتر	-4587
ازے	-4588
اضے	-4589
اعد	-4590
اما	-4591
باک	-4592
بوت	-4593
بھی	-4594
بین	-4595
جاز	-4596
حات	-4597
حید	-4598
ختہ	-4599
داز	-4600
دیب	-4601
دیق	-4602
ذاب	-4603
راق	-4604
سار	-4605
سمہ	-4606
شین	-4607
ضاد	-4608
عتی	-4609
غلط	-4610
لیس	-4611
مید	-4612
ناس	-4613
نٹو	-4614
واس	-4615
وبز	-4616
وما	-4617
ومن	-4618
ڑوں	-4619
کوں	-4620
گال	-4621
گنے	-4622
گین	-4623
ھیں	-4624
یسا	-4625
یلی	-4626
ینے	-4627
یوس	-4628
۔۔۔	-4629
▁بص	-4630
▁دت	-4631
▁رگ	-4632
▁سگ	-4633
▁نل	-4634
▁چپ	-4635
ائیے	-4636
اتھن	-4637
ادیا	-4638
اسکر	-4639
الیف	-4640
امین	-4641
انڈر	-4642
ایات	-4643
برای	-4644
تانی	-4645
دائی	-4646
دلال	-4647
رحقی	-4648
سٹرڈ	-4649
غاری	-4650
غلطی	-4651
قریب	-4652
مجھے	-4653
مقاب	-4654
ناصر	-4655
ندرہ	-4656
ندوں	-4657
ورفت	-4658
ونوں	-4659
کووچ	-4660
یداد	-4661
یریت	-4662
یمور	-4663
▁آشی	-4664
▁آنی	-4665
▁ارش	-4666
▁الت	-4667
▁الو	-4668
▁الہ	-4669
▁انٹ	-4670
▁اِت	-4671
▁اڑا	-4672
▁اکھ	-4673
▁بام	-4674
▁بزم	-4675
▁تڑپ	-4676
▁جدت	-4677
▁حاض	-4678
▁حجم	-4679
▁حسب	-4680
▁خوں	-4681
▁دوڑ	-4682
▁دی۔	-4683
▁رشک	-4684
▁روپ	-4685
▁زہر	-4686
▁سان	-4687
▁سحر	-4688
▁سرِ	-4689
▁سوا	-4690
▁شرک	-4691
▁عدل	-4692
▁فقہ	-4693
▁قبر	-4694
▁قصہ	-4695
▁قید	-4696
▁لگو	-4697
▁لیٹ	-4698
▁مشق	-4699
▁مصن	-4700
▁مٹھ	-4701
▁میک	-4702
▁نان	-4703
▁نون	-4704
▁نوے	-4705
▁وزر	-4706
▁ٹرک	-4707
▁پرس	-4708
▁پوڈ	-4709
▁پکو	-4710
▁پہل	-4711
▁ڈبل	-4712
▁کال	-4713
▁کلہ	-4714
▁کود	-4715
▁کور	-4716
▁کہو	-4717
▁گنا	-4718
▁ھیں	-4719
▁ہوش	-4720
▁ہٹا	-4721
▁ہیم	-4722
ائسنس	-4723
ائیں۔	-4724
اسکتا	-4725
ریباں	-4726
شواہد	-4727
مینان	-4728
ونٹتا	-4729
کھلتا	-4730
یندرا	-4731
▁آتی۔	-4732
▁آرمی	-4733
▁ابلا	-4734
▁اترے	-4735
▁اجتہ	-4736
▁اداس	-4737
▁ادیب	-4738
▁اسکی	-4739
▁امان	-4740
▁اماں	-4741
▁انڈہ	-4742
▁اونٹ	-4743
▁اونچ	-4744
▁اکمل	-4745
▁ایشن	-4746
▁بریک	-4747
▁بڑھے	-4748
▁بکرے	-4749
▁بگاڑ	-4750
▁بھرے	-4751
▁تابع	-4752
▁تغیر	-4753
▁توکل	-4754
▁تیرہ	-4755
▁تیری	-4756
▁جنوں	-4757
▁جواز	-4758
▁جھاگ	-4759
▁حدیث	-4760
▁حصوں	-4761
▁خالص	-4762
▁دادا	-4763
▁دانت	-4764
▁دماغ	-4765
▁دودھ	-4766
▁رشتے	-4767
▁روئے	-4768
▁رہنم	-4769
▁زخمی	-4770
▁زرعی	-4771
▁زوال	-4772
▁ساحل	-4773
▁سفید	-4774
▁سفیر	-4775
▁سوات	-4776
▁سٹاف	-4777
▁سکول	-4778
▁سیزن	-4779
▁شعبہ	-4780
▁شوبز	-4781
▁شیشے	-4782
▁صدور	-4783
▁طبقے	-4784
▁طعام	-4785
▁ظالم	-4786
▁عاصم	-4787
▁عذاب	-4788
▁عمان	-4789
▁عملا	-4790
▁عیاں	-4791
▁فتنہ	-4792
▁فساد	-4793
▁قاہد	-4794
▁لڑکی	-4795
▁لیبر	-4796
▁مبار	-4797
▁مجال	-4798
▁محیط	-4799
▁مرتے	-4800
▁مردہ	-4801
▁مرزا	-4802
▁مشکو	-4803
▁معنی	-4804
▁معین	-4805
▁مقدر	-4806
▁مووی	-4807
▁موٹر	-4808
▁میکس	-4809
▁نرگس	-4810
▁نعرے	-4811
▁ننھے	-4812
▁نیند	-4813
▁نیوز	-4814
▁وافر	-4815
▁وڈیو	-4816
▁پالا	-4817
▁پروا	-4818
▁پریس	-4819
▁پلیٹ	-4820
▁پڑیں	-4821
▁پیشہ	-4822
▁پیہم	-4823
▁ڈالی	-4824
▁ڈاکو	-4825
▁ڈیٹا	-4826
▁کاغذ	-4827
▁کسان	-4828
▁کلاں	-4829
▁کیاج	-4830
▁گردش	-4831
▁گرنے	-4832
▁گزری	-4833
▁گلشن	-4834
▁ھمیں	-4835
▁ہمار	-4836
▁ہمسا	-4837
▁ہولڈ	-4838
رحقیقت	-4839
سمبرای	-4840
▁آجائے	-4841
▁آمریت	-4842
▁اتفاق	-4843
▁اتوار	-4844
▁ارتھر	-4845
▁اسامہ	-4846
▁اسپین	-4847
▁اعجاز	-4848
▁امتیا	-4849
▁اوروہ	-4850
▁اولین	-4851
▁اکیلے	-4852
▁بارڈر	-4853
▁بازوں	-4854
▁بدنام	-4855
▁برائے	-4856
▁بندوں	-4857
▁بڑھتے	-4858
▁بیٹھی	-4859
▁تسلسل	-4860
▁تصدیق	-4861
▁تعریف	-4862
▁تفصیل	-4863
▁تقاضے	-4864
▁تماشا	-4865
▁تناظر	-4866
▁توحید	-4867
▁تھاپا	-4868
▁تھوڑے	-4869
▁تھیٹر	-4870
▁جزائر	-4871
▁جگہیں	-4872
▁دائمی	-4873
▁دلاتا	-4874
▁دیانت	-4875
▁رابطے	-4876
▁رومان	-4877
▁روکنے	-4878
▁زاویہ	-4879
▁سفارش	-4880
▁سلطان	-4881
▁سٹیٹس	-4882
▁شامیں	-4883
▁صحافی	-4884
▁صفائی	-4885
▁صوبوں	-4886
▁عالمِ	-4887
▁عموما	-4888
▁عمومی	-4889
▁فلسفی	-4890
▁فکریہ	-4891
▁فکسنگ	-4892
▁لاٹھی	-4893
▁لطیفہ	-4894
▁مایوس	-4895
▁متنوع	-4896
▁متوجہ	-4897
▁مخلوق	-4898
▁معافی	-4899
▁معجزے	-4900
▁معکوس	-4901
▁منتقل	-4902
▁منقطع	-4903
▁مہینے	-4904
▁نامور	-4905
▁نکلتے	-4906
▁نگران	-4907
▁ویمنز	-4908
▁وینٹی	-4909
▁پلئیر	-4910
▁پندرہ	-4911
▁پچھلی	-4912
▁چینلز	-4913
▁ڈالتے	-4914
▁ڈھاکہ	-4915
▁ڈھونڈ	-4916
▁کانسی	-4917
▁کراٹے	-4918
▁کررہی	-4919
▁کمیشن	-4920
▁کوئلہ	-4921
▁کیمرے	-4922
▁گجرات	-4923
▁گزارا	-4924
▁گزارو	-4925
▁گلوبل	-4926
▁ہارون	-4927
▁ہورہا	-4928
▁ہورہی	-4929
▁ہوچکی	-4930
▁ہوگا۔	-4931
▁ہٹانے	-4932
▁یافتہ	-4933
▁آئیڈیا	-4934
▁آشیانہ	-4935
▁احتیاط	-4936
▁اسٹائل	-4937
▁اسپتال	-4938
▁اشتہار	-4939
▁اصلاحی	-4940
▁اظہارِ	-4941
▁اعصابی	-4942
▁افتتاح	-4943
▁اٹھائے	-4944
▁اٹھاتی	-4945
▁اٹھاتے	-4946
▁برامدی	-4947
▁برخلاف	-4948
▁بھگتنی	-4949
▁تمہارے	-4950
▁تنخواہ	-4951
▁جذباتی	-4952
▁جوکووچ	-4953
▁خریدنے	-4954
▁دائروں	-4955
▁دارانہ	-4956
▁دروازے	-4957
▁دنیائے	-4958
▁رجسٹرڈ	-4959
▁روبوٹس	-4960
▁روزانہ	-4961
▁روزگار	-4962
▁ریاستی	-4963
▁سالانہ	-4964
▁سلیمان	-4965
▁سمجھیں	-4966
▁شخصیات	-4967
▁شکایات	-4968
▁طاقتیں	-4969
▁لائسنس	-4970
▁لکھاری	-4971
▁لیجیے۔	-4972
▁مضامین	-4973
▁منڈیوں	-4974
▁مہربان	-4975
▁نکالنا	-4976
▁پاناما	-4977
▁پروپیگ	-4978
▁پہاڑوں	-4979
▁پہچانا	-4980
▁پیچھے۔	-4981
▁چھوڑنے	-4982
▁چھپانے	-4983
▁ڈپریشن	-4984
▁کروشیا	-4985
▁کمپنیز	-4986
▁کوالیف	-4987
▁کپتانی	-4988
▁کھانوں	-4989
▁کھیلنے	-4990
▁گنجائش	-4991
▁گواسکر	-4992
▁ہوسکتا	-4993
▁آمدورفت	-4994
▁اداکاری	-4995
▁استدلال	-4996
▁اطمینان	-4997
▁اندھیرا	-4998
▁انقلابی	-4999
▁تیاریاں	-5000
▁جائیداد	-5001
▁درحقیقت	-5002
▁رجحانات	-5003
▁مشروبات	-5004
▁مہمانوں	-5005
▁میراتھن	-5006
▁نفسیاتی	-5007
▁پروفیسر	-5008
▁پہنچایا	-5009
▁ڈرائیور	-5010
▁کارنامہ	-5011
▁گھونٹتا	-5012
▁ہوجائیں	-5013
▁اورشواہد	-5014
▁ریفریجری	-5015
▁پارلیمنٹ	-5016
▁پیٹرولیم	-5017
▁کھجیندرا	-5018
سمبرایجنسی	-5019
▁فیفاورلڈکپ	-5020
▁پاکستانیوں	-5021
▁کبھارکھلتا	-5022
اِ	-5023
بس	-5024
تن	-5025
جع	-5026
حق	-5027
زش	-5028
شع	-5029
ظہ	-5030
عا	-5031
فے	-5032
وح	-5033
وخ	-5034
چن	-5035
ڑو	-5036
ہو	-5037
▁ں	-5038
ائط	-5039
ازن	-5040
اسو	-5041
اصر	-5042
افل	-5043
انج	-5044
اڑا	-5045
اہو	-5046
باں	-5047
بدی	-5048
بلے	-5049
تاز	-5050
جوع	-5051
ذول	-5052
رام	-5053
روح	-5054
زوں	-5055
زیر	-5056
سبز	-5057
سیل	-5058
شنگ	-5059
طین	-5060
فوج	-5061
قود	-5062
مور	-5063
نٹس	-5064
نڈی	-5065
وات	-5066
ورے	-5067
وسے	-5068
ونز	-5069
ونگ	-5070
ِیے	-5071
ٹلر	-5072
پاٹ	-5073
پنگ	-5074
کات	-5075
کیو	-5076
گرد	-5077
ہام	-5078
ینگ	-5079
یکی	-5080
▁ثق	-5081
▁ذخ	-5082
▁رن	-5083
▁سخ	-5084
▁شے	-5085
▁مے	-5086
▁وو	-5087
▁کد	-5088
ئیرز	-5089
ازیل	-5090
اسیت	-5091
افیل	-5092
الاب	-5093
التو	-5094
انڈز	-5095
اوار	-5096
اویر	-5097
اڑھے	-5098
اکچھ	-5099
بائل	-5100
باحث	-5101
جیٹل	-5102
دیشہ	-5103
رادف	-5104
ردید	-5105
رونی	-5106
زمان	-5107
زیری	-5108
سودہ	-5109
شیدہ	-5110
طرنج	-5111
ظرین	-5112
قاضی	-5113
لائن	-5114
لانا	-5115
لیمز	-5116
مئیر	-5117
نبول	-5118
ندیہ	-5119
وریس	-5120
وقوف	-5121
ومیت	-5122
ونچر	-5123
ونکا	-5124
وٹان	-5125
ٹائی	-5126
کواس	-5127
▁آئن	-5128
▁آتش	-5129
▁آلو	-5130
▁آکے	-5131
▁ائر	-5132
▁ابن	-5133
▁ارے	-5134
▁انا	-5135
▁انف	-5136
▁اوپ	-5137
▁بجھ	-5138
▁برو	-5139
▁برٹ	-5140
▁بسر	-5141
▁بوس	-5142
▁تجز	-5143
▁ترا	-5144
▁جنت	-5145
▁جنی	-5146
▁جوں	-5147
▁جگر	-5148
▁جھٹ	-5149
▁حسی	-5150
▁حلے	-5151
▁دڑو	-5152
▁دھک	-5153
▁سوئ	-5154
▁سکو	-5155
▁شکن	-5156
▁ضمن	-5157
▁عدو	-5158
▁عیا	-5159
▁عیس	-5160
▁فاص	-5161
▁قلت	-5162
▁قمر	-5163
▁لائ	-5164
▁لخت	-5165
▁لوح	-5166
▁لیڈ	-5167
▁لی۔	-5168
▁ماد	-5169
▁مخم	-5170
▁مزہ	-5171
▁مسل	-5172
▁معص	-5173
▁ملت	-5174
▁منع	-5175
▁منگ	-5176
▁موج	-5177
▁مکی	-5178
▁میا	-5179
▁نذر	-5180
▁نشو	-5181
▁نوں	-5182
▁وعظ	-5183
▁وہم	-5184
▁ٹاس	-5185
▁ٹھک	-5186
▁پرت	-5187
▁پرچ	-5188
▁پہ۔	-5189
▁چال	-5190
▁چاٹ	-5191
▁کتے	-5192
▁کشش	-5193
▁کٹو	-5194
▁کھچ	-5195
▁کیچ	-5196
▁گار	-5197
▁گنے	-5198
▁گیر	-5199
▁گیل	-5200
▁ہال	-5201
افراد	-5202
انجام	-5203
انسنگ	-5204
بادلہ	-5205
ریکٹر	-5206
کریسی	-5207
▁آرہا	-5208
▁آرہی	-5209
▁آپشن	-5210
▁آیات	-5211
▁اجزا	-5212
▁اسما	-5213
▁اسکر	-5214
▁البر	-5215
▁الجھ	-5216
▁انتھ	-5217
▁اورب	-5218
▁بازو	-5219
▁باطل	-5220
▁بانی	-5221
▁باور	-5222
▁باڈی	-5223
▁باکس	-5224
▁بجھے	-5225
▁بحری	-5226
▁برپا	-5227
▁برہم	-5228
▁بہتا	-5229
▁تباہ	-5230
▁تربی	-5231
▁تعطل	-5232
▁تلخی	-5233
▁تنہا	-5234
▁توبہ	-5235
▁تھوک	-5236
▁تھِی	-5237
▁جاہل	-5238
▁جذبے	-5239
▁جمود	-5240
▁جناح	-5241
▁جوئی	-5242
▁جھوم	-5243
▁جیتا	-5244
▁حاوی	-5245
▁حمید	-5246
▁حکام	-5247
▁خاصا	-5248
▁خالد	-5249
▁خانی	-5250
▁دعوے	-5251
▁دیدہ	-5252
▁دیشی	-5253
▁رائج	-5254
▁رقوم	-5255
▁رنگی	-5256
▁روکا	-5257
▁ریلی	-5258
▁زخرف	-5259
▁ستون	-5260
▁سلوک	-5261
▁سنتے	-5262
▁سوار	-5263
▁سٹیج	-5264
▁سیلز	-5265
▁سیلم	-5266
▁سینٹ	-5267
▁سینڈ	-5268
▁سینی	-5269
▁شعاع	-5270
▁شمسی	-5271
▁طلبا	-5272
▁عادی	-5273
▁عددی	-5274
▁عزیز	-5275
▁فاسٹ	-5276
▁فیصد	-5277
▁قابو	-5278
▁لالچ	-5279
▁لالی	-5280
▁لسان	-5281
▁لطیف	-5282
▁لڑنے	-5283
▁لکھی	-5284
▁لگا۔	-5285
▁لینی	-5286
▁لیور	-5287
▁لیکر	-5288
▁مبنی	-5289
▁مثلا	-5290
▁مرجع	-5291
▁مساف	-5292
▁مسلہ	-5293
▁معمہ	-5294
▁ملائ	-5295
▁ممبر	-5296
▁منظم	-5297
▁منفی	-5298
▁موئن	-5299
▁مہیا	-5300
▁نثار	-5301
▁ندیم	-5302
▁نصیح	-5303
▁نقطہ	-5304
▁نواب	-5305
▁نچلے	-5306
▁نڈال	-5307
▁نکاح	-5308
▁وارد	-5309
▁ویزے	-5310
▁پاتے	-5311
▁پارک	-5312
▁پبلک	-5313
▁پراس	-5314
▁پرکھ	-5315
▁پلڑا	-5316
▁پڑھا	-5317
▁پڑے۔	-5318
▁پیرو	-5319
▁چرچا	-5320
▁چلتن	-5321
▁چلے۔	-5322
▁چھپا	-5323
▁چیمہ	-5324
▁ڈالے	-5325
▁ڈاون	-5326
▁ڈویل	-5327
▁کردے	-5328
▁کریب	-5329
▁کولم	-5330
▁کھلی	-5331
▁کھچا	-5332
▁کھیت	-5333
▁کیسا	-5334
▁گانا	-5335
▁گسار	-5336
▁گھڑی	-5337
▁گہری	-5338
▁ہائی	-5339
▁ہفتہ	-5340
▁ہنسی	-5341
▁ہوشی	-5342
▁ہٹلر	-5343
▁یارو	-5344
▁یارک	-5345
▁یوسف	-5346
جنٹائن	-5347
رانداز	-5348
یوسینا	-5349
▁ابلاغ	-5350
▁ابہام	-5351
▁اثاثے	-5352
▁اجاگر	-5353
▁اجنبی	-5354
▁اداری	-5355
▁ارتقا	-5356
▁اسباب	-5357
▁اسپاٹ	-5358
▁اشارہ	-5359
▁اعادہ	-5360
▁اقامہ	-5361
▁الدین	-5362
▁انجری	-5363
▁انڈیل	-5364
▁اوراس	-5365
▁اولمپ	-5366
▁بائیں	-5367
▁بانڈز	-5368
▁برتری	-5369
▁برہنہ	-5370
▁بلاول	-5371
▁بنانی	-5372
▁بندھے	-5373
▁بکواس	-5374
▁بہادر	-5375
▁بیرون	-5376
▁بیزار	-5377
▁بیمبا	-5378
▁تالاب	-5379
▁تجدید	-5380
▁تردید	-5381
▁تسلیم	-5382
▁تصحیح	-5383
▁توازن	-5384
▁تکمیل	-5385
▁ثانوی	-5386
▁جانیے	-5387
▁جانے۔	-5388
▁جرنیل	-5389
▁جوتوں	-5390
▁حقانی	-5391
▁حوالہ	-5392
▁خدمات	-5393
▁خریدا	-5394
▁خواہی	-5395
▁خیریت	-5396
▁دعاگو	-5397
▁دوبئی	-5398
▁دیتے۔	-5399
▁ذخائر	-5400
▁رافیل	-5401
▁ردعمل	-5402
▁رہتی۔	-5403
▁زلزلہ	-5404
▁ساڑھے	-5405
▁ستائش	-5406
▁سرخرو	-5407
▁سوکھے	-5408
▁سکتا۔	-5409
▁سیدنا	-5410
▁سیدھا	-5411
▁سیدھی	-5412
▁سیدھے	-5413
▁شرائط	-5414
▁شطرنج	-5415
▁صداقت	-5416
▁طورپہ	-5417
▁عزیمت	-5418
▁عناصر	-5419
▁عندیہ	-5420
▁غلامی	-5421
▁فردوس	-5422
▁فلورو	-5423
▁فیملی	-5424
▁قادری	-5425
▁قدامت	-5426
▁قریشی	-5427
▁قوائد	-5428
▁لکھتا	-5429
▁لگادو	-5430
▁لیجئے	-5431
▁مابعد	-5432
▁مباحث	-5433
▁مبذول	-5434
▁مجروح	-5435
▁محبوب	-5436
▁مسیحی	-5437
▁مشاہد	-5438
▁مغلوب	-5439
▁مفقود	-5440
▁ملالہ	-5441
▁ممتاز	-5442
▁منسلک	-5443
▁منقسم	-5444
▁میٹرک	-5445
▁ناشتے	-5446
▁نجانے	-5447
▁نظارہ	-5448
▁نکلتا	-5449
▁نکلنے	-5450
▁نکھار	-5451
▁واشنگ	-5452
▁ویرات	-5453
▁پارسی	-5454
▁پریمی	-5455
▁پسینہ	-5456
▁پٹرول	-5457
▁پکانے	-5458
▁چلاتا	-5459
▁چیمبر	-5460
▁ڈیوٹی	-5461
▁کرائے	-5462
▁کرنا۔	-5463
▁کلنڈر	-5464
▁کلورو	-5465
▁کنارے	-5466
▁کوچنگ	-5467
▁کھاتا	-5468
▁کھولا	-5469
▁کےلئے	-5470
▁گھیرا	-5471
▁ہوگی۔	-5472
▁ہڈیوں	-5473
▁یونین	-5474
▁اجنبیت	-5475
▁ارضیات	-5476
▁الطبیع	-5477
▁امارات	-5478
▁اندیشہ	-5479
▁اوراگر	-5480
▁اٹھارہ	-5481
▁ایسوسی	-5482
▁بادشاہ	-5483
▁بھوٹان	-5484
▁بینکوں	-5485
▁بیوقوف	-5486
▁تصاویر	-5487
▁تیندوا	-5488
▁تیندوے	-5489
▁ثقافتی	-5490
▁جسمانی	-5491
▁حساسیت	-5492
▁خریدنا	-5493
▁خوشونت	-5494
▁دانستہ	-5495
▁ساتویں	-5496
▁سبزیاں	-5497
▁سماٹرا	-5498
▁طاقتور	-5499
▁عیسائی	-5500
▁فراہمی	-5501
▁فرمائے	-5502
▁فلسطین	-5503
▁قربانی	-5504
▁لاکھوں	-5505
▁لگتاہے	-5506
▁مانیٹر	-5507
▁مترادف	-5508
▁متقاضی	-5509
▁ملاحظہ	-5510
▁موبائل	-5511
▁مہاراج	-5512
▁میزبان	-5513
▁نادانی	-5514
▁ناظرین	-5515
▁ٹمپرنگ	-5516
▁پرفارم	-5517
▁پلئیرز	-5518
▁پوشیدہ	-5519
▁چاولوں	-5520
▁چاہئیں	-5521
▁چاہِیے	-5522
▁ڈھونڈو	-5523
▁ڈیجیٹل	-5524
▁کشمیری	-5525
▁کمانڈر	-5526
▁کھیلیں	-5527
▁گزارتا	-5528
▁گزارنا	-5529
▁گناہوں	-5530
▁گھومتی	-5531
▁گیندوں	-5532
▁ہنگامی	-5533
▁ہوچکی۔	-5534
وروکریسی	-5535
▁استنبول	-5536
▁الجیریا	-5537
▁امتیازی	-5538
▁ایساکچھ	-5539
▁ایڈونچر	-5540
▁خانیوال	-5541
▁خرابیوں	-5542
▁سرانجام	-5543
▁سنجیدگی	-5544
▁سیاستدا	-5545
▁شرمندگی	-5546
▁شیوسینا	-5547
▁عدالتیں	-5548
▁لسانیات	-5549
▁مصیبتوں	-5550
▁میکسویل	-5551
▁نشوونما	-5552
▁پانچواں	-5553
▁پروازوں	-5554
▁پریمئیر	-5555
▁ڈرامائی	-5556
▁کھلکھلا	-5557
▁ارجنٹائن	-5558
▁اسپیشلسٹ	-5559
▁انتظامات	-5560
▁اوپریٹنگ	-5561
▁ایکسپورٹ	-5562
▁بلوچستان	-5563
▁بےاختیار	-5564
▁سرگرمیاں	-5565
▁سیاستدان	-5566
▁مٹھائیاں	-5567
▁چیمپیئنز	-5568
▁ڈائریکٹر	-5569
▁ڈویلپمنٹ	-5570
▁کوالیفائی	-5571
آب	-5572
تع	-5573
خذ	-5574
زح	-5575
شپ	-5576
صت	-5577
ضب	-5578
قد	-5579
مس	-5580
یش	-5581
ئنا	-5582
ائض	-5583
اتج	-5584
اتع	-5585
اجو	-5586
ادت	-5587
ارٹ	-5588
اسم	-5589
اقب	-5590
الر	-5591
الل	-5592
انٹ	-5593
اٹا	-5594
اکت	-5595
بحث	-5596
تاط	-5597
حدہ	-5598
خرا	-5599
خیص	-5600
دتی	-5601
ذان	-5602
ربا	-5603
رسن	-5604
رشل	-5605
رپل	-5606
ری۔	-5607
سبت	-5608
سکے	-5609
سین	-5610
طرح	-5611
ظمی	-5612
عدے	-5613
عظم	-5614
علم	-5615
فاف	-5616
فٹی	-5617
قیر	-5618
لوگ	-5619
لیک	-5620
مکن	-5621
ندی	-5622
ندے	-5623
نسل	-5624
نڈہ	-5625
نگے	-5626
وجی	-5627
وسط	-5628
ونو	-5629
ٹنگ	-5630
پٹن	-5631
چتا	-5632
ڈرر	-5633
ڈشی	-5634
ڑلے	-5635
کٹی	-5636
گاہ	-5637
گوا	-5638
ھری	-5639
ھیے	-5640
ہرا	-5641
ہمی	-5642
ہین	-5643
یئے	-5644
یاہ	-5645
یرت	-5646
یسے	-5647
یوب	-5648
یہی	-5649
▁جد	-5650
▁جغ	-5651
▁حا	-5652
▁خل	-5653
▁دپ	-5654
▁رت	-5655
▁وظ	-5656
▁وٹ	-5657
▁ٹپ	-5658
▁پے	-5659
▁کک	-5660
▁ھا	-5661
▁ھم	-5662
آبصل	-5663
ابیر	-5664
احیل	-5665
اربہ	-5666
اریل	-5667
ازنہ	-5668
المہ	-5669
الیہ	-5670
امید	-5671
اپور	-5672
اگئی	-5673
اہدہ	-5674
باپے	-5675
بران	-5676
بینہ	-5677
ترکہ	-5678
تیں۔	-5679
جائز	-5680
جمنٹ	-5681
جوعہ	-5682
حادث	-5683
رافت	-5684
رمیں	-5685
سمتی	-5686
شاری	-5687
شہیر	-5688
صغیر	-5689
ضمام	-5690
طہیر	-5691
طینی	-5692
ظہار	-5693
عوام	-5694
عیات	-5695
فتوں	-5696
فیشل	-5697
لاوہ	-5698
لشیم	-5699
لمند	-5700
لوجی	-5701
لیان	-5702
ماری	-5703
معطل	-5704
میرے	-5705
نامک	-5706
نمنٹ	-5707
نٹری	-5708
نڈول	-5709
نگوں	-5710
وانی	-5711
وبست	-5712
وشکا	-5713
ٹروے	-5714
ٹیول	-5715
پہنچ	-5716
کروں	-5717
کھوں	-5718
کیشن	-5719
گانہ	-5720
گریس	-5721
یدھی	-5722
▁آئل	-5723
▁آدم	-5724
▁آکر	-5725
▁اان	-5726
▁ابر	-5727
▁ابو	-5728
▁انو	-5729
▁اپن	-5730
▁اڑے	-5731
▁اکا	-5732
▁بحر	-5733
▁بخش	-5734
▁برے	-5735
▁بلی	-5736
▁بمب	-5737
▁بنت	-5738
▁بچن	-5739
▁بھگ	-5740
▁بہم	-5741
▁تلے	-5742
▁تھک	-5743
▁تہی	-5744
▁جزا	-5745
▁جلا	-5746
▁جھک	-5747
▁جھی	-5748
▁جیو	-5749
▁حیی	-5750
▁خلو	-5751
▁دئے	-5752
▁دلی	-5753
▁دکر	-5754
▁دہل	-5755
▁دید	-5756
▁راک	-5757
▁ربا	-5758
▁رقص	-5759
▁زپر	-5760
▁زیب	-5761
▁سبس	-5762
▁سلا	-5763
▁سچی	-5764
▁شاد	-5765
▁شبِ	-5766
▁شعر	-5767
▁شیر	-5768
▁طبق	-5769
▁عبر	-5770
▁عذر	-5771
▁غنی	-5772
▁فاط	-5773
▁فجر	-5774
▁فرش	-5775
▁فعل	-5776
▁فوڈ	-5777
▁قزح	-5778
▁قوس	-5779
▁لاچ	-5780
▁لتا	-5781
▁لوں	-5782
▁لکس	-5783
▁لیم	-5784
▁مرض	-5785
▁مرچ	-5786
▁مرہ	-5787
▁منح	-5788
▁موڈ	-5789
▁ندی	-5790
▁نرم	-5791
▁نشر	-5792
▁نمٹ	-5793
▁نہی	-5794
▁نیم	-5795
▁واہ	-5796
▁وحی	-5797
▁ولی	-5798
▁ونگ	-5799
▁ٹوئ	-5800
▁ٹوپ	-5801
▁پر۔	-5802
▁پشت	-5803
▁چور	-5804
▁چوٹ	-5805
▁ڈٹے	-5806
▁کاٹ	-5807
▁کتب	-5808
▁کرت	-5809
▁کرچ	-5810
▁کفر	-5811
▁کھٹ	-5812
▁گمب	-5813
▁گون	-5814
▁گٹھ	-5815
▁گھس	-5816
▁گھٹ	-5817
▁ہاس	-5818
▁ہتھ	-5819
▁ہمہ	-5820
▁ہےا	-5821
▁یوم	-5822
ئنایم	-5823
اتعلق	-5824
ادران	-5825
اراڈو	-5826
انونی	-5827
انیاں	-5828
اہدوں	-5829
بودار	-5830
جوہات	-5831
حکومت	-5832
ریسنگ	-5833
ریلوی	-5834
فارمر	-5835
فرادی	-5836
وائیں	-5837
وظہبی	-5838
ونچال	-5839
پولین	-5840
ڈسٹری	-5841
ہارون	-5842
▁آدھا	-5843
▁االل	-5844
▁اتار	-5845
▁احمق	-5846
▁احیا	-5847
▁اذان	-5848
▁ارام	-5849
▁اسپن	-5850
▁انار	-5851
▁انجم	-5852
▁انکم	-5853
▁انکی	-5854
▁انھی	-5855
▁اورخ	-5856
▁اولا	-5857
▁اکشے	-5858
▁اگلی	-5859
▁ایما	-5860
▁بالا	-5861
▁باہم	-5862
▁بدلو	-5863
▁بساط	-5864
▁بندش	-5865
▁بندی	-5866
▁بھوک	-5867
▁بیاہ	-5868
▁بیرل	-5869
▁بیوی	-5870
▁بیٹا	-5871
▁تالا	-5872
▁تامل	-5873
▁تبلی	-5874
▁تجرب	-5875
▁تسلی	-5876
▁تمیز	-5877
▁تیرا	-5878
▁ثبوت	-5879
▁جادو	-5880
▁جارج	-5881
▁جایا	-5882
▁جسٹس	-5883
▁جمیل	-5884
▁جیتی	-5885
▁حریف	-5886
▁حلال	-5887
▁حلقے	-5888
▁خانے	-5889
▁خاکے	-5890
▁خطیر	-5891
▁خفیہ	-5892
▁خوان	-5893
▁دانہ	-5894
▁دباو	-5895
▁درجے	-5896
▁دلوں	-5897
▁دھوپ	-5898
▁رانا	-5899
▁رشید	-5900
▁روتے	-5901
▁رہوں	-5902
▁ریگو	-5903
▁زیدی	-5904
▁سائن	-5905
▁سالہ	-5906
▁سانپ	-5907
▁سباب	-5908
▁سستا	-5909
▁سستی	-5910
▁سستے	-5911
▁سکون	-5912
▁سہگل	-5913
▁سہی۔	-5914
▁شرما	-5915
▁ششدر	-5916
▁شفاف	-5917
▁شکری	-5918
▁صحبت	-5919
▁طاہر	-5920
▁طبقہ	-5921
▁طلسم	-5922
▁ظہور	-5923
▁عصری	-5924
▁عظمی	-5925
▁علوم	-5926
▁علیم	-5927
▁عہدہ	-5928
▁عہدے	-5929
▁غدار	-5930
▁فرصت	-5931
▁فریز	-5932
▁فرین	-5933
▁فعال	-5934
▁فواد	-5935
▁فہمی	-5936
▁قادر	-5937
▁قاری	-5938
▁قرضے	-5939
▁قلیل	-5940
▁لائی	-5941
▁لڑنا	-5942
▁لکڑی	-5943
▁لگنی	-5944
▁لگی۔	-5945
▁ماخذ	-5946
▁ماری	-5947
▁مالا	-5948
▁مسلک	-5949
▁معمر	-5950
▁ملتے	-5951
▁منڈی	-5952
▁مکھی	-5953
▁مکین	-5954
▁میلہ	-5955
▁مینہ	-5956
▁میٹر	-5957
▁نائب	-5958
▁ناتج	-5959
▁نادہ	-5960
▁نامہ	-5961
▁نصاب	-5962
▁نعمت	-5963
▁نقشہ	-5964
▁نمبر	-5965
▁نواک	-5966
▁نچوڑ	-5967
▁نکتہ	-5968
▁نکسن	-5969
▁نیاز	-5970
▁واقف	-5971
▁وردی	-5972
▁ورزش	-5973
▁وعدے	-5974
▁وقتی	-5975
▁ویمن	-5976
▁ٹانگ	-5977
▁ٹرپل	-5978
▁ٹکرا	-5979
▁پانا	-5980
▁پرور	-5981
▁پرچم	-5982
▁پزیر	-5983
▁پڑنے	-5984
▁پڑی۔	-5985
▁پہنا	-5986
▁پہنو	-5987
▁پینے	-5988
▁چادر	-5989
▁چاھے	-5990
▁چکی۔	-5991
▁چھپے	-5992
▁ڈکٹی	-5993
▁ڈھول	-5994
▁ڈیری	-5995
▁ڈیزل	-5996
▁ڈیوس	-5997
▁کاسٹ	-5998
▁کافر	-5999
▁کالی	-6000
▁کامط	-6001
▁کانگ	-6002
▁کسٹم	-6003
▁کوئے	-6004
▁کھان	-6005
▁کھلے	-6006
▁کہا۔	-6007
▁کہیے	-6008
▁کیسز	-6009
▁گاہے	-6010
▁گذار	-6011
▁گراں	-6012
▁گرنا	-6013
▁گریڈ	-6014
▁گزرا	-6015
▁گولی	-6016
▁گھسا	-6017
▁گیند	-6018
▁گینڈ	-6019
▁ہانگ	-6020
▁ہجرت	-6021
▁ہلچل	-6022
▁ہوٹل	-6023
▁یکسر	-6024
نڈولکر	-6025
ڈشیڈنگ	-6026
▁ادھار	-6027
▁اساسی	-6028
▁اسلحہ	-6029
▁اسٹیل	-6030
▁اسکول	-6031
▁اصرار	-6032
▁اعظمی	-6033
▁اقدام	-6034
▁التجا	-6035
▁الناس	-6036
▁امراض	-6037
▁انجین	-6038
▁اٹھتا	-6039
▁اپنوں	-6040
▁ایدھی	-6041
▁اینکر	-6042
▁باغات	-6043
▁باہمت	-6044
▁بتائی	-6045
▁بردار	-6046
▁بصیرت	-6047
▁بھاتی	-6048
▁بیدار	-6049
▁بیمار	-6050
▁بیندر	-6051
▁بیوشن	-6052
▁بیٹری	-6053
▁بیچنے	-6054
▁ترغیب	-6055
▁ترمیم	-6056
▁تشخیص	-6057
▁تشہیر	-6058
▁تطہیر	-6059
▁توسیع	-6060
▁توہین	-6061
▁تکرار	-6062
▁تھامے	-6063
▁تیلگو	-6064
▁تیمور	-6065
▁جاسکے	-6066
▁جانتی	-6067
▁جاگنے	-6068
▁جہالت	-6069
▁حادثہ	-6070
▁حالیہ	-6071
▁حملوں	-6072
▁خاتمہ	-6073
▁خاتمے	-6074
▁خاصیت	-6075
▁خبریں	-6076
▁خریدی	-6077
▁خستگی	-6078
▁درجات	-6079
▁درستی	-6080
▁دشمنی	-6081
▁دوھری	-6082
▁دپیکا	-6083
▁دھونے	-6084
▁دھوکا	-6085
▁دھڑلے	-6086
▁دہانی	-6087
▁دیوتا	-6088
▁دیکھے	-6089
▁راتوں	-6090
▁راحیل	-6091
▁رسالت	-6092
▁رشتوں	-6093
▁روابط	-6094
▁رہائش	-6095
▁رہیں۔	-6096
▁ریاضی	-6097
▁سبحان	-6098
▁سربین	-6099
▁سرسبز	-6100
▁سرمئی	-6101
▁سرکار	-6102
▁سماعت	-6103
▁سوچیں	-6104
▁سپاٹا	-6105
▁سکالر	-6106
▁سکندر	-6107
▁سگریٹ	-6108
▁سیٹھی	-6109
▁شراکت	-6110
▁شریف۔	-6111
▁شکایت	-6112
▁شہادت	-6113
▁شہروں	-6114
▁صفحات	-6115
▁صنعتی	-6116
▁طیارہ	-6117
▁فاروق	-6118
▁فرائض	-6119
▁فلاور	-6120
▁فیڈرر	-6121
▁قاعدہ	-6122
▁قبائل	-6123
▁قبروں	-6124
▁قوتوں	-6125
▁لمحوں	-6126
▁مآبصل	-6127
▁مارشل	-6128
▁مارکس	-6129
▁ماندہ	-6130
▁مبارک	-6131
▁متروک	-6132
▁متوقع	-6133
▁محافظ	-6134
▁محتاط	-6135
▁مرحوم	-6136
▁مسیحا	-6137
▁مشروب	-6138
▁معرکہ	-6139
▁مناتے	-6140
▁منافع	-6141
▁منعقد	-6142
▁موقعِ	-6143
▁ناریل	-6144
▁نافذہ	-6145
▁نکلے۔	-6146
▁نےمنی	-6147
▁وصولی	-6148
▁وٹامن	-6149
▁ویران	-6150
▁ٹیونز	-6151
▁پروفی	-6152
▁پنجرہ	-6153
▁پھینٹ	-6154
▁پیرہن	-6155
▁چولہے	-6156
▁چھاپہ	-6157
▁چھلکے	-6158
▁ڈرامہ	-6159
▁کرائی	-6160
▁کرارا	-6161
▁کرگئے	-6162
▁کمرشل	-6163
▁کوستے	-6164
▁کھلنا	-6165
▁کھلنے	-6166
▁کینیا	-6167
▁گانوں	-6168
▁گاہوں	-6169
▁گرینڈ	-6170
▁گنجان	-6171
▁گورنر	-6172
▁گھروں	-6173
▁گھنٹہ	-6174
▁ہفتوں	-6175
▁ہنگری	-6176
▁ہونگی	-6177
▁ہیجان	-6178
▁یادیں	-6179
2663063	-6180
▁اجتہاد	-6181
▁احترام	-6182
▁اردگرد	-6183
▁ازوریس	-6184
▁افریقا	-6185
▁افسانے	-6186
▁انتقام	-6187
▁انضمام	-6188
▁انوشکا	-6189
▁اٹھانے	-6190
▁اکنامک	-6191
▁باہرلے	-6192
▁بحفاظت	-6193
▁برصغیر	-6194
▁بلاگنگ	-6195
▁بلغاری	-6196
▁بچگانہ	-6197
▁بھرمار	-6198
▁بہادری	-6199
▁بہلایا	-6200
▁بیرونی	-6201
▁تاجروں	-6202
▁تدابیر	-6203
▁ترتیبی	-6204
▁تمھارے	-6205
▁جغرافی	-6206
▁جنجوعہ	-6207
▁جولائی	-6208
▁خطائیں	-6209
▁دانشور	-6210
▁دکھانا	-6211
▁دیکھتی	-6212
▁روزمرہ	-6213
▁ریٹائر	-6214
▁زبانیں	-6215
▁زلزلوں	-6216
▁زیادتی	-6217
▁زیربحث	-6218
▁سردیوں	-6219
▁سونالی	-6220
▁سونامی	-6221
▁شائستہ	-6222
▁شریفوں	-6223
▁صنعتوں	-6224
▁عقلمند	-6225
▁علیحدہ	-6226
▁عنقریب	-6227
▁فرشتوں	-6228
▁فرمایا	-6229
▁لاتعلق	-6230
▁لاطینی	-6231
▁لانسنگ	-6232
▁لگائیں	-6233
▁مثالیں	-6234
▁مختاری	-6235
▁مزاحمت	-6236
▁مشاہدے	-6237
▁مشترکہ	-6238
▁ممبران	-6239
▁مناسبت	-6240
▁منافقت	-6241
▁موازنہ	-6242
▁موسموں	-6243
▁موٹروے	-6244
▁مکالمہ	-6245
▁مینڈیٹ	-6246
▁میڈیکل	-6247
▁ناممکن	-6248
▁نمکیات	-6249
▁نپولین	-6250
▁واقعات	-6251
▁وجوہات	-6252
▁ٹورنٹو	-6253
▁ٹھہرے۔	-6254
▁پرامید	-6255
▁پگھلنا	-6256
▁پہنچتی	-6257
▁پیشیاں	-6258
▁کابینہ	-6259
▁کرلیتے	-6260
▁کروانے	-6261
▁کھاگئی	-6262
▁کیلشیم	-6263
▁گریبان	-6264
▁گمبھیر	-6265
▁گیمبیا	-6266
▁ہنگامہ	-6267
▁ہوتاہے	-6268
▁ہوجاتی	-6269
▁ہوگیا۔	-6270
▁آسانیاں	-6271
▁ائرلینڈ	-6272
▁ابتدائی	-6273
▁ابوظہبی	-6274
▁احتیاطی	-6275
▁انفرادی	-6276
▁انہوںنے	-6277
▁اورغلطی	-6278
▁اونچائی	-6279
▁اینڈرسن	-6280
▁برادران	-6281
▁بندوبست	-6282
▁بھونچال	-6283
▁ترجیحات	-6284
▁تعلیمات	-6285
▁خریداری	-6286
▁خوشبوئے	-6287
▁رہنمائی	-6288
▁ریکارڈز	-6289
▁ریگستان	-6290
▁سنگاپور	-6291
▁طبیعیات	-6292
▁عدالتوں	-6293
▁فاتحانہ	-6294
▁فخرزمان	-6295
▁فراوانی	-6296
▁فنکاروں	-6297
▁فیسٹیول	-6298
▁ملائشیا	-6299
▁موضوعات	-6300
▁ناتجربہ	-6301
▁نصیحتیں	-6302
▁نمائندہ	-6303
▁ٹورنمنٹ	-6304
▁پریشانی	-6305
▁پریمیئر	-6306
▁پٹرولیم	-6307
▁کااظہار	-6308
▁کارخانے	-6309
▁کانگریس	-6310
▁کنندگان	-6311
▁کولمبیا	-6312
▁کہانیاں	-6313
▁گریزمین	-6314
▁گھبراتے	-6315
▁ہسپانیہ	-6316
▁ہمسایوں	-6317
▁یہودیوں	-6318
ئنایمباپے	-6319
▁اختیارات	-6320
▁اسٹریلین	-6321
▁اعتراضات	-6322
▁ایئرپورٹ	-6323
▁جاسکتاہے	-6324
▁خوشبودار	-6325
▁دیانتدار	-6326
▁راہنمائی	-6327
▁فلسفیانہ	-6328
▁لوڈشیڈنگ	-6329
▁مانیٹرنگ	-6330
▁میڈیاسیل	-6331
▁کریبیائی	-6332
▁کولاراڈو	-6333
▁پروپیگنڈا	-6334
▁ہندوستانی	-6335
▁آئیڈیالوجی	-6336
▁الطبیعیاتی	-6337
▁ٹرانسفارمر	-6338
▁ریفریجریٹرز	-6339
▁چیمپئنایمباپے	-6340
تک	-6341
رن	-6342
سئ	-6343
سز	-6344
سہ	-6345
طق	-6346
عم	-6347
لر	-6348
لص	-6349
لع	-6350
مز	-6351
وپ	-6352
ٹک	-6353
چس	-6354
گٹ	-6355
ےا	-6356
آخر	-6357
ائک	-6358
ارب	-6359
برگ	-6360
بند	-6361
بیو	-6362
تیس	-6363
ثیر	-6364
جنگ	-6365
جیو	-6366
حسن	-6367
خلہ	-6368
دیا	-6369
ذبہ	-6370
روش	-6371
رون	-6372
ریح	-6373
ریس	-6374
سرو	-6375
سری	-6376
سون	-6377
سیا	-6378
شات	-6379
صلہ	-6380
ضیہ	-6381
ظیر	-6382
عین	-6383
فال	-6384
فرم	-6385
فیر	-6386
قبل	-6387
لاب	-6388
لفظ	-6389
لٹن	-6390
لڈن	-6391
میض	-6392
نری	-6393
نظر	-6394
نٹے	-6395
نیک	-6396
وبا	-6397
وزڈ	-6398
ولپ	-6399
جب	-6400
آٹھ	-6401
ئرا	-6402
الف	-6403
بیہ	-6404
درد	-6405
درن	-6406
دگی	-6407
غوش	-6408
میہ	-6409
ومک	-6410
وٹس	-6411
وٹو	-6412
ویٹ	-6413
ٹکس	-6414
پٹس	-6415
پھر	-6416
پیٹ	-6417
چیز	-6418
ڈان	-6419
ڈرچ	-6420
ڑان	-6421
ڑھی	-6422
کنے	-6423
کول	-6424
گئی	-6425
گرا	-6426
گیڈ	-6427
ھی۔	-6428
یتا	-6429
یلم	-6430
یمن	-6431
ینو	-6432
یور	-6433
▁ئہ	-6434
▁ئے	-6435
▁تپ	-6436
▁جک	-6437
▁خم	-6438
▁رب	-6439
▁رع	-6440
▁رف	-6441
▁سز	-6442
▁ضو	-6443
▁قذ	-6444
▁قِ	-6445
▁لل	-6446
▁ود	-6447
▁ٹف	-6448
▁ٹہ	-6449
▁پٹ	-6450
▁گِ	-6451
▁ھی	-6452
▁ہڈ	-6453
▁یش	-6454
▁ین	-6455
ائیر	-6456
ائیگ	-6457
ارگٹ	-6458
البا	-6459
البہ	-6460
الحق	-6461
الرح	-6462
المے	-6463
الوں	-6464
الٹی	-6465
اموش	-6466
اندی	-6467
انٹر	-6468
اورہ	-6469
اکین	-6470
اہری	-6471
اہیے	-6472
بازی	-6473
بانئ	-6474
بخود	-6475
بدیل	-6476
بہتر	-6477
تابھ	-6478
خراش	-6479
دورہ	-6480
ذبذب	-6481
ربڑھ	-6482
رفیس	-6483
رگاہ	-6484
زائی	-6485
سئلہ	-6486
ستار	-6487
ستجو	-6488
سطور	-6489
سٹال	-6490
سیمی	-6491
شاہد	-6492
صافی	-6493
صحیح	-6494
ضحیک	-6495
فکیٹ	-6496
فیکٹ	-6497
قیقہ	-6498
لامی	-6499
خصت	-6500
سٹن	-6501
شیخ	-6502
طفی	-6503
فکر	-6504
لغت	-6505
لوٹ	-6506
نڈز	-6507
وٹے	-6508
▁قط	-6509
▁گڈ	-6510
ئیفا	-6511
ائٹی	-6512
اتھا	-6513
ادرب	-6514
افرم	-6515
الیب	-6516
جہاں	-6517
دارت	-6518
ریاں	-6519
شیوں	-6520
لیٹر	-6521
لیٹس	-6522
لیکن	-6523
مدات	-6524
ملکی	-6525
ندیل	-6526
نویت	-6527
وارا	-6528
والہ	-6529
وحین	-6530
وخال	-6531
ولبر	-6532
ٹیفک	-6533
پائر	-6534
پسول	-6535
پوری	-6536
چلتا	-6537
ڈیشن	-6538
کاسٹ	-6539
کرتی	-6540
کلاں	-6541
کورہ	-6542
گوگل	-6543
یالم	-6544
یردا	-6545
یرنگ	-6546
یزون	-6547
یلین	-6548
ینشن	-6549
ینڈر	-6550
ینڈل	-6551
ینگے	-6552
یکرز	-6553
▁آرا	-6554
▁آپے	-6555
▁آیت	-6556
▁ابی	-6557
▁اخذ	-6558
▁ازم	-6559
▁اشع	-6560
▁الغ	-6561
▁اِس	-6562
▁اگے	-6563
▁باگ	-6564
▁برآ	-6565
▁بوم	-6566
▁بِل	-6567
▁تاح	-6568
▁تان	-6569
▁توف	-6570
▁جاہ	-6571
▁ججی	-6572
▁جدہ	-6573
▁جڑے	-6574
▁جیل	-6575
▁حرف	-6576
▁خرم	-6577
▁خلا	-6578
▁خوا	-6579
▁دری	-6580
▁دمی	-6581
▁دِل	-6582
▁رزق	-6583
▁رسم	-6584
▁رعن	-6585
▁رنج	-6586
▁رہن	-6587
▁ریپ	-6588
▁زرم	-6589
▁زند	-6590
▁زکو	-6591
▁ساد	-6592
▁سجا	-6593
▁سخن	-6594
▁سند	-6595
▁سوٹ	-6596
▁شفا	-6597
▁شمش	-6598
▁شوک	-6599
سائن	-6600
متیں	-6601
نٹوں	-6602
گرنہ	-6603
▁اتا	-6604
▁ایج	-6605
▁بھا	-6606
▁حسد	-6607
▁ریڈ	-6608
▁شیخ	-6609
▁صحن	-6610
▁صدف	-6611
▁صفت	-6612
▁صنم	-6613
▁صیح	-6614
▁ضرب	-6615
▁طبع	-6616
▁عین	-6617
▁غار	-6618
▁غضب	-6619
▁فاش	-6620
▁فال	-6621
▁فام	-6622
▁فنش	-6623
▁فول	-6624
▁قبا	-6625
▁قبی	-6626
▁قفس	-6627
▁لاد	-6628
▁لتے	-6629
▁لوم	-6630
▁لیو	-6631
▁مسخ	-6632
▁مشا	-6633
▁منے	-6634
▁نخو	-6635
▁نشہ	-6636
▁نفی	-6637
▁نگہ	-6638
▁نہج	-6639
▁ومب	-6640
▁ٹھی	-6641
▁ٹیل	-6642
▁پاش	-6643
▁پرے	-6644
▁پلے	-6645
▁پمز	-6646
▁پٹھ	-6647
▁پڑو	-6648
▁پیو	-6649
▁چاک	-6650
▁چیٹ	-6651
▁چیڑ	-6652
▁ڈرا	-6653
▁ڈور	-6654
▁ڈیم	-6655
▁ڈیٹ	-6656
▁ڈیپ	-6657
▁کاق	-6658
▁کاک	-6659
▁کرج	-6660
▁کسے	-6661
▁کشت	-6662
▁کلی	-6663
▁کوس	-6664
▁کچا	-6665
▁کچن	-6666
▁کچی	-6667
▁کہل	-6668
▁کیو	-6669
▁کیں	-6670
▁کےع	-6671
▁گرج	-6672
▁گرل	-6673
▁گنگ	-6674
▁گیٹ	-6675
▁ہرن	-6676
▁ہلا	-6677
▁ہور	-6678
▁یمن	-6679
▁یکم	-6680
ائونٹ	-6681
ائیڈل	-6682
اجیکٹ	-6683
الدین	-6684
امزاج	-6685
بوڈیا	-6686
تالیس	-6687
تبدیل	-6688
ثیائی	-6689
دیانت	-6690
ستانہ	-6691
شمالی	-6692
عدلیہ	-6693
فیوزڈ	-6694
قادری	-6695
قسمتی	-6696
لاعات	-6697
لیئرز	-6698
لیٹری	-6699
مسائل	-6700
معرفت	-6701
نڈورا	-6702
نیشنل	-6703
وردار	-6704
ولوجی	-6705
ولیات	-6706
ومدار	-6707
ونکتے	-6708
چاہیے	-6709
چھوٹے	-6710
ڈیشین	-6711
کرائب	-6712
کلپٹس	-6713
گھنٹے	-6714
گینون	-6715
ھارٹی	-6716
ھیرنے	-6717
ہرایا	-6718
ہریلا	-6719
یکٹسٹ	-6720
▁آئند	-6721
▁آئیے	-6722
▁آجکل	-6723
▁آدھے	-6724
▁آغوش	-6725
▁آلات	-6726
▁ابلے	-6727
▁اراپ	-6728
▁ارشد	-6729
▁ازاد	-6730
▁اسلم	-6731
▁اشرف	-6732
▁اصلا	-6733
▁اصلی	-6734
▁امدن	-6735
▁امیج	-6736
▁امیہ	-6737
▁اندا	-6738
▁انمٹ	-6739
▁انٹی	-6740
▁اوبر	-6741
▁اورن	-6742
▁اوسط	-6743
▁اٹلی	-6744
▁اپیل	-6745
▁اچھل	-6746
▁اکشر	-6747
▁اہلِ	-6748
▁ایام	-6749
▁ایرک	-6750
▁بجاے	-6751
▁بددل	-6752
▁برتھ	-6753
▁برون	-6754
▁بنتے	-6755
▁بوسہ	-6756
▁بچاے	-6757
▁بھرم	-6758
▁بھلی	-6759
▁بھیس	-6760
▁بھیگ	-6761
▁بہنے	-6762
▁تئیں	-6763
▁تاجر	-6764
▁ترجم	-6765
▁تضاد	-6766
▁تلفظ	-6767
▁تنکا	-6768
▁توڑا	-6769
▁تیور	-6770
▁جائی	-6771
▁جالب	-6772
▁جاکر	-6773
▁جبڑا	-6774
▁جذبہ	-6775
▁جلسہ	-6776
▁جلسے	-6777
▁جلوے	-6778
▁جنات	-6779
▁جنتی	-6780
▁جنوب	-6781
▁جوئے	-6782
▁جوبن	-6783
▁جہان	-6784
▁جہتی	-6785
▁جیمی	-6786
▁جینے	-6787
▁حاضر	-6788
▁حربہ	-6789
▁خادم	-6790
▁خبری	-6791
▁خزاں	-6792
▁خضوع	-6793
▁خطوں	-6794
▁خلوص	-6795
▁خوفِ	-6796
▁دارِ	-6797
▁داسو	-6798
▁درود	-6799
▁دلوا	-6800
▁دلیر	-6801
▁دورے	-6802
▁دوڑا	-6803
▁دھوم	-6804
▁دیسی	-6805
▁دیوب	-6806
▁دیوی	-6807
▁راجر	-6808
▁راکٹ	-6809
▁راکھ	-6810
▁رحمی	-6811
▁رخصت	-6812
▁رنگا	-6813
▁روان	-6814
▁روتا	-6815
▁روما	-6816
▁رکنی	-6817
▁رگبی	-6818
▁رہنی	-6819
▁سائے	-6820
▁سالن	-6821
▁ساٹھ	-6822
▁سجتا	-6823
▁سرکس	-6824
▁سطحی	-6825
▁سماں	-6826
▁سمیٹ	-6827
▁سنجے	-6828
▁سننا	-6829
▁سوتی	-6830
▁سورو	-6831
▁سوفے	-6832
▁سیال	-6833
▁سیاہ	-6834
▁سینے	-6835
▁شائد	-6836
▁شائر	-6837
▁شادو	-6838
▁شوخی	-6839
▁شکنی	-6840
▁شہرہ	-6841
▁شیعہ	-6842
▁صبری	-6843
▁صدقہ	-6844
▁طرح۔	-6845
▁طریق	-6846
▁طناز	-6847
▁عبرت	-6848
▁عبور	-6849
▁عراق	-6850
▁عروہ	-6851
▁عزیر	-6852
▁عنصر	-6853
▁غنڈہ	-6854
▁غورو	-6855
▁فائی	-6856
▁فراڈ	-6857
▁فلمز	-6858
▁فونز	-6859
▁فوٹو	-6860
▁فیصل	-6861
▁فیول	-6862
▁قتال	-6863
▁قلعے	-6864
▁قمیض	-6865
▁قِسم	-6866
▁لائف	-6867
▁لائم	-6868
▁لاتی	-6869
▁لمحے	-6870
▁لٹکا	-6871
▁لگنے	-6872
▁لیول	-6873
▁لیٹر	-6874
▁مائک	-6875
▁مانا	-6876
▁مانچ	-6877
▁ماچس	-6878
▁مبشر	-6879
▁محرک	-6880
▁مخلص	-6881
▁مریخ	-6882
▁مستع	-6883
▁مظہر	-6884
▁معطل	-6885
▁ملنی	-6886
▁مندی	-6887
▁منطق	-6888
▁منیب	-6889
▁مواد	-6890
▁موٹا	-6891
▁ناان	-6892
▁نامی	-6893
▁نبرد	-6894
▁ندوی	-6895
▁نسلی	-6896
▁نظیر	-6897
▁نقاب	-6898
▁نوبت	-6899
▁نوید	-6900
▁نگاہ	-6901
▁نیدر	-6902
▁نیکی	-6903
▁وائٹ	-6904
▁وادر	-6905
▁وارن	-6906
▁وحشت	-6907
▁ورکر	-6908
▁وصال	-6909
▁وقار	-6910
▁وہتو	-6911
▁ٹکڑے	-6912
▁ٹھاٹ	-6913
▁پانے	-6914
▁پتہ۔	-6915
▁پروم	-6916
▁پرچی	-6917
▁پستہ	-6918
▁پوجا	-6919
▁پونے	-6920
▁پکڑا	-6921
▁پھلے	-6922
▁پیاز	-6923
▁پیتا	-6924
▁پیرا	-6925
▁چالو	-6926
▁چلئے	-6927
▁چلیے	-6928
▁چندے	-6929
▁چودہ	-6930
▁چھٹے	-6931
▁چیدہ	-6932
▁ڈبیا	-6933
▁ڈراف	-6934
▁ڈنڈے	-6935
▁ڈگری	-6936
▁ڈیڑھ	-6937
▁کاشت	-6938
▁کالج	-6939
▁کثیر	-6940
▁کرام	-6941
▁کروٹ	-6942
▁کرہی	-6943
▁کلچر	-6944
▁کوزے	-6945
▁کوڑا	-6946
▁کٹوا	-6947
▁کھنچ	-6948
▁کھیپ	-6949
▁کہوں	-6950
▁کیرب	-6951
▁کیون	-6952
▁کیوی	-6953
▁کیں۔	-6954
▁کےپا	-6955
▁گالف	-6956
▁گالی	-6957
▁گردن	-6958
▁گروی	-6959
▁گرہن	-6960
▁گوبر	-6961
▁گھری	-6962
▁ہتھی	-6963
▁ہلکا	-6964
▁ہولی	-6965
ائیکنگ	-6966
اتےہیں	-6967
انونیت	-6968
رہماری	-6969
سٹریشن	-6970
لوٹینس	-6971
مقابلہ	-6972
وزیردا	-6973
ولپنڈی	-6974
ولیائی	-6975
پیٹرول	-6976
کےبازی	-6977
گزینڈر	-6978
▁آجاتے	-6979
▁آسائش	-6980
▁آسماں	-6981
▁آفیشل	-6982
▁آلودہ	-6983
▁آگاہی	-6984
▁ابلیس	-6985
▁اثاثہ	-6986
▁اربوں	-6987
▁ارڑان	-6988
▁اسرار	-6989
▁اطفال	-6990
▁اعداد	-6991
▁افکار	-6992
▁اقرار	-6993
▁البرٹ	-6994
▁الجاز	-6995
▁الحاق	-6996
▁الحال	-6997
▁الشیخ	-6998
▁الطاف	-6999
▁الوقت	-7000
▁امداد	-7001
▁انسٹا	-7002
▁انفرا	-7003
▁اوکھے	-7004
▁اوگرا	-7005
▁اِتنا	-7006
▁اٹلان	-7007
▁اکائی	-7008
▁اگانے	-7009
▁اہلیہ	-7010
▁ایجاد	-7011
▁ایشوز	-7012
▁ایلیا	-7013
▁باجوہ	-7014
▁باسکٹ	-7015
▁باندی	-7016
▁بتاتے	-7017
▁بتانے	-7018
▁بخاری	-7019
▁بخوبی	-7020
▁بدلتا	-7021
▁برائی	-7022
▁براہِ	-7023
▁بروئے	-7024
▁برکات	-7025
▁بزدار	-7026
▁بسیرا	-7027
▁بلڈنگ	-7028
▁بناوٹ	-7029
▁بندوق	-7030
▁بوریت	-7031
▁بولنا	-7032
▁بوندا	-7033
▁بچانے	-7034
▁بھینٹ	-7035
▁بہانہ	-7036
▁بہانے	-7037
▁بیروت	-7038
▁تاریک	-7039
▁تجزیہ	-7040
▁تحسین	-7041
▁تذبذب	-7042
▁تضحیک	-7043
▁تعیلم	-7044
▁تماشہ	-7045
▁تنازع	-7046
▁توفیق	-7047
▁توقیر	-7048
▁تکفیر	-7049
▁تکنیک	-7050
▁ثانیہ	-7051
▁جامعہ	-7052
▁جاننا	-7053
▁جانیں	-7054
▁جستجو	-7055
▁جسوال	-7056
▁جملوں	-7057
▁جوانی	-7058
▁جھونک	-7059
▁جھٹکے	-7060
▁خبروں	-7061
▁خدشات	-7062
▁خزانے	-7063
▁خوانی	-7064
▁داروں	-7065
▁داڑھی	-7066
▁دبائو	-7067
▁دھارے	-7068
▁دھونی	-7069
▁دیوار	-7070
▁ذائقہ	-7071
▁ذہنوں	-7072
▁راجیو	-7073
▁راشدہ	-7074
▁راموز	-7075
▁راموس	-7076
▁رزمیہ	-7077
▁رعایت	-7078
▁رنگین	-7079
▁روندا	-7080
▁رونما	-7081
▁زاویے	-7082
▁زخموں	-7083
▁زیریں	-7084
▁ساختہ	-7085
▁سجادہ	-7086
▁سجایا	-7087
▁سسٹمز	-7088
▁سلیقہ	-7089
▁سلیقے	-7090
▁سنبھل	-7091
▁سنگین	-7092
▁سونپا	-7093
▁سچائی	-7094
▁سڑکیں	-7095
▁سیلاب	-7096
▁سینما	-7097
▁سینیٹ	-7098
▁شاعرہ	-7099
▁شبانہ	-7100
▁شرافت	-7101
▁شعوری	-7102
▁شوٹنگ	-7103
▁صدارت	-7104
▁صلیبی	-7105
▁ضابطے	-7106
▁ضوابط	-7107
▁ظاہری	-7108
▁غالبا	-7109
▁فاصلہ	-7110
▁فالتو	-7111
▁قذافی	-7112
▁قسمیں	-7113
▁قندیل	-7114
▁قواعد	-7115
▁لاچار	-7116
▁لکھوں	-7117
▁لکھیں	-7118
▁لگاتے	-7119
▁لگایا	-7120
▁لہروں	-7121
▁مادری	-7122
▁ماسٹر	-7123
▁مانگو	-7124
▁متحرک	-7125
▁مخمصے	-7126
▁مراکز	-7127
▁مرجعِ	-7128
▁مروجہ	-7129
▁مسلئے	-7130
▁مشکوک	-7131
▁مصطفی	-7132
▁مطلوب	-7133
▁مظالم	-7134
▁معتبر	-7135
▁معرفت	-7136
▁مقتول	-7137
▁ملاوٹ	-7138
▁منصور	-7139
▁منٹوں	-7140
▁موزوں	-7141
▁مونٹی	-7142
▁موڈرچ	-7143
▁مینڈک	-7144
▁میٹرو	-7145
▁ناشتہ	-7146
▁نرخوں	-7147
▁نظریے	-7148
▁نکھوں	-7149
▁نگاری	-7150
▁والے۔	-7151
▁واٹسن	-7152
▁واپڈا	-7153
▁وظائف	-7154
▁ولیمز	-7155
▁وولبر	-7156
▁وگرنہ	-7157
▁ٹارگٹ	-7158
▁ٹاکرے	-7159
▁ٹرائی	-7160
▁ٹوئٹر	-7161
▁ٹپکتا	-7162
▁ٹکٹرے	-7163
▁پائے۔	-7164
▁پرواہ	-7165
▁پنکھا	-7166
▁پنکھے	-7167
▁پودوں	-7168
▁پڑھتا	-7169
▁پکوان	-7170
▁پکڑنا	-7171
▁پھرتے	-7172
▁پھندہ	-7173
▁پھولے	-7174
▁پھیلا	-7175
▁پیمان	-7176
▁چالاک	-7177
▁چاندی	-7178
▁چاٹتے	-7179
▁چایئے	-7180
▁چلانا	-7181
▁چمکتی	-7182
▁چونکا	-7183
▁چھٹیں	-7184
▁چھڑکا	-7185
▁چیختا	-7186
▁چیکنگ	-7187
▁ڈائری	-7188
▁ڈیبیو	-7189
▁کاروں	-7190
▁کارکن	-7191
▁کامرس	-7192
▁کانگو	-7193
▁کاٹتے	-7194
▁کدورت	-7195
▁کرتوت	-7196
▁کررہا	-7197
▁کرلیں	-7198
▁کماتے	-7199
▁کنفرم	-7200
▁کونسل	-7201
▁کوکچھ	-7202
▁کھیلی	-7203
▁کیاہے	-7204
▁کیلیے	-7205
▁کینری	-7206
▁کیوں۔	-7207
▁کےحسن	-7208
▁گرداں	-7209
▁گرگیا	-7210
▁گزرتی	-7211
▁گھبرا	-7212
▁گیانا	-7213
▁ہمدرد	-7214
▁ہمراہ	-7215
▁ہملٹن	-7216
▁ہڈیاں	-7217
▁ہیئرا	-7218
▁ہیومن	-7219
▁ہیکرز	-7220
▁یکساں	-7221
2663060	-7222
2663070	-7223
2663072	-7224
افرمائے	-7225
رونیشیا	-7226
شاریہاں	-7227
کنالوجی	-7228
▁آئلینڈ	-7229
▁آزمایش	-7230
▁آہستہ۔	-7231
▁اتارنے	-7232
▁ادھورا	-7233
▁اساسات	-7234
▁اسالیب	-7235
▁اسٹیشن	-7236
▁اسکندر	-7237
▁افریقی	-7238
▁افزائی	-7239
▁الاسٹک	-7240
▁السطور	-7241
▁الہامی	-7242
▁انسٹال	-7243
▁اورایک	-7244
▁اورکیا	-7245
▁اپنانا	-7246
▁بالآخر	-7247
▁بخارات	-7248
▁برازیل	-7249
▁برتائو	-7250
▁بریگیڈ	-7251
▁بچائیں	-7252
▁بڑھاتا	-7253
▁بڑھایا	-7254
▁بھروسے	-7255
▁بھلائی	-7256
▁بینظیر	-7257
▁بیٹھتا	-7258
▁بیٹھنا	-7259
▁بیچارے	-7260
▁تربیتی	-7261
▁تفصیلی	-7262
▁تمھاری	-7263
▁تنظیم۔	-7264
▁تھوکئے	-7265
▁تہذیبی	-7266
▁جارجیا	-7267
▁جامعات	-7268
▁جاہلیت	-7269
▁جھکائو	-7270
▁خالصتا	-7271
▁خدوخال	-7272
▁خواہاں	-7273
▁داریوں	-7274
▁دشواری	-7275
▁دلخراش	-7276
▁دوسآٹھ	-7277
▁دکھائے	-7278
▁دہرانے	-7279
▁رعنائی	-7280
▁روٹیاں	-7281
▁روٹیوں	-7282
▁رہنمائ	-7283
▁ریفنڈز	-7284
▁زہریلا	-7285
▁سائنسی	-7286
▁سامعین	-7287
▁سزائیں	-7288
▁سمجھای	-7289
▁سنائیں	-7290
▁سنجیدہ	-7291
▁سنگیتا	-7292
▁سورونو	-7293
▁سویلین	-7294
▁سینڈوچ	-7295
▁سیکھتا	-7296
▁سیکھنے	-7297
▁سےبہتر	-7298
▁شکستوں	-7299
▁صوبائی	-7300
▁طاقتوں	-7301
▁عادتوں	-7302
▁غلاموں	-7303
▁غلطیوں	-7304
▁فائدہ۔	-7305
▁فامولا	-7306
▁فراموش	-7307
▁فلورین	-7308
▁لگائے۔	-7309
▁لگوائے	-7310
▁لیڈروں	-7311
▁مائیکل	-7312
▁مالکان	-7313
▁مانگتی	-7314
▁ماہتاب	-7315
▁مجبوری	-7316
▁محاذوں	-7317
▁مذکورہ	-7318
▁مضائقہ	-7319
▁معنویت	-7320
▁مفاہمت	-7321
▁ملیالم	-7322
▁منقسمہ	-7323
▁مکالمے	-7324
▁مہرباں	-7325
▁ناردرن	-7326
▁ناقدین	-7327
▁ناکافی	-7328
▁نخواہی	-7329
▁نمونوں	-7330
▁نورانی	-7331
▁نکالتا	-7332
▁واردات	-7333
▁وارمنگ	-7334
▁وزرائے	-7335
▁ومبلڈن	-7336
▁ٹائروں	-7337
▁ٹریننگ	-7338
▁ٹریڈنگ	-7339
▁ٹھکانے	-7340
▁ٹھہرتا	-7341
▁پارکنگ	-7342
▁پرتگال	-7343
▁پرفیکٹ	-7344
▁پرکھنے	-7345
▁پنجابی	-7346
▁پولٹکس	-7347
▁پھرلغت	-7348
▁پہچان۔	-7349
▁پیمانے	-7350
▁پیٹرول	-7351
▁چاہتا۔	-7352
▁چڑھائے	-7353
▁چھوڑنا	-7354
▁چھوڑوں	-7355
▁ڈریسنگ	-7356
▁ڈیزائن	-7357
▁کاغذات	-7358
▁کامران	-7359
▁کتابوں	-7360
▁کرایا۔	-7361
▁کردیتے	-7362
▁کرواتا	-7363
▁کروانا	-7364
▁کروڑوں	-7365
▁کلہاڑی	-7366
▁کوالٹی	-7367
▁کوششوں	-7368
▁کھائیں	-7369
▁کھولتا	-7370
▁کھولنے	-7371
▁کیلئے۔	-7372
▁کیمرون	-7373
▁کیپسول	-7374
▁گارنٹی	-7375
▁گاہکوں	-7376
▁گریباں	-7377
▁گزارا۔	-7378
▁گزاریں	-7379
▁ہالینڈ	-7380
▁ہونٹوں	-7381
▁ہونےتک	-7382
▁ہوگئے۔	-7383
▁ہیمبرگ	-7384
▁یوئیفا	-7385
سائنٹیفک	-7386
▁آئرلینڈ	-7387
▁اانکشاف	-7388
▁اتھارٹی	-7389
▁احساسات	-7390
▁اراپاہو	-7391
▁استقامت	-7392
▁استقبال	-7393
▁امیتابھ	-7394
▁انٹرفیس	-7395
▁انگلیاں	-7396
▁اولادوں	-7397
▁اولمپکس	-7398
▁اٹھائیں	-7399
▁اکائونٹ	-7400
▁ایتھلیٹ	-7401
▁ایمیزون	-7402
▁باشندوں	-7403
▁باغبانی	-7404
▁باکسروں	-7405
▁برائیڈل	-7406
▁بمقابلہ	-7407
▁بنتاہے۔	-7408
▁بندرگاہ	-7409
▁بکھیرنے	-7410
▁بھونکتے	-7411
▁بیٹھتے۔	-7412
▁بیٹھیئے	-7413
▁تحریریں	-7414
▁تفصیلات	-7415
▁تیاریوں	-7416
▁جغرافیے	-7417
▁حکومتوں	-7418
▁حیثیتیں	-7419
▁حیوانات	-7420
▁خواہشوں	-7421
▁خودبخود	-7422
▁دوستانہ	-7423
▁دہندگان	-7424
▁دیکھئے۔	-7425
▁رائیڈرز	-7426
▁رائیڈنگ	-7427
▁ریاستوں	-7428
▁سفرنامہ	-7429
▁سنبھالا	-7430
▁سنبھالو	-7431
▁سنچریاں	-7432
▁سٹریلین	-7433
▁سکیورٹی	-7434
▁سہولیات	-7435
▁شاعرانہ	-7436
▁صنعتکار	-7437
▁ضیاالحق	-7438
▁طلسماتی	-7439
▁عبداللہ	-7440
▁علاقائی	-7441
▁عیاشیوں	-7442
▁غوروفکر	-7443
▁غیرملکی	-7444
▁فائیٹرز	-7445
▁مخلوقات	-7446
▁معصومیت	-7447
▁مفتوحین	-7448
▁مقابلوں	-7449
▁مچھلیاں	-7450
▁میںصحیح	-7451
▁نامزدگی	-7452
▁نقصانات	-7453
▁نورجہاں	-7454
▁نگہبانئ	-7455
▁وابستگی	-7456
▁واشنگٹن	-7457
▁ٹماٹروں	-7458
▁ٹھہرایا	-7459
▁پراجیکٹ	-7460
▁پریکٹسٹ	-7461
▁پوڈکاسٹ	-7462
▁پھیلانے	-7463
▁پیمانوں	-7464
▁ڈھنڈورا	-7465
▁کمبوڈیا	-7466
▁کمیونٹی	-7467
▁کنفیوزڈ	-7468
▁کینٹیکی	-7469
▁کےمسائل	-7470
▁گنوائیں	-7471
▁ہائیکنگ	-7472
▁ہوتےہیں	-7473
▁ہوشیاری	-7474
▁یوکلپٹس	-7475
انٹرنیشنل	-7476
لاقانونیت	-7477
وزیرداخلہ	-7478
▁اداکاروں	-7479
▁انٹریکشن	-7480
▁اورعدلیہ	-7481
▁برتھلیمی	-7482
▁حکمرانوں	-7483
▁دارومدار	-7484
▁دوسرےملک	-7485
▁راولپنڈی	-7486
▁رجسٹریشن	-7487
▁زرمبادلہ	-7488
▁سبسکرائب	-7489
▁عائدکرتی	-7490
▁ناانصافی	-7491
▁نظرانداز	-7492
▁وزیراعلی	-7493
▁پارلیمان	-7494
▁پروفیشنل	-7495
▁پریشربڑھ	-7496
▁ڈیسکگوگل	-7497
▁کارروائی	-7498
▁کارڈیشین	-7499
▁کامطالبہ	-7500
▁کشمیرمیں	-7501
▁گھبرائیے	-7502
▁ہسپتالوں	-7503
▁ہونیوالے	-7504
بیوروکریسی	-7505
چاہیےہارون	-7506
▁الیگزینڈر	-7507
▁انجینیرنگ	-7508
▁انسٹاگرام	-7509
▁خاطرہماری	-7510
▁دھوکےبازی	-7511
▁ریگولیٹری	-7512
▁سرشاریہاں	-7513
▁عبدالستار	-7514
▁عربپیٹرول	-7515
▁عطافرمائے	-7516
▁نیدرلینڈز	-7517
▁ٹیکنولوجی	-7518
▁پاکستانیت	-7519
▁کارلوٹینس	-7520
▁کاشتکاروں	-7521
▁کیاجاسکتا	-7522
▁ہالیگینون	-7523
▁ہزارچھوٹے	-7524
▁ہمارامزاج	-7525
▁کارروائیاں	-7526
▁ہیئراسٹائل	-7527
▁اقتدارتبدیل	-7528
▁امریکاشمالی	-7529
▁انڈونیثیائی	-7530
▁دسمبرایجنسی	-7531
▁مائکرونیشیا	-7532
▁پریکٹسٹرافی	-7533
▁سرگرمیاںمعطل	-7534
▁جاناچاہیےہارون	-7535
▁پریشربڑھاتےہیں	-7536
ئل	-7537
ثہ	-7538
دع	-7539
طغ	-7540
ئیم	-7541
ادے	-7542
اد۔	-7543
اِس	-7544
اِن	-7545
اکو	-7546
بلڈ	-7547
بچن	-7548
تیش	-7549
جوش	-7550
دھا	-7551
دھن	-7552
سنل	-7553
شدہ	-7554
شید	-7555
مقد	-7556
منگ	-7557
مول	-7558
میع	-7559
ناں	-7560
نگا	-7561
نہم	-7562
واگ	-7563
وتی	-7564
ٹزر	-7565
پتہ	-7566
پید	-7567
چرڈ	-7568
ڈرز	-7569
ڈھا	-7570
ڑھے	-7571
کسر	-7572
کنہ	-7573
کوچ	-7574
گنی	-7575
گڑی	-7576
یدے	-7577
یڈن	-7578
یڈ۔	-7579
▁ئن	-7580
▁ثم	-7581
▁زن	-7582
▁فش	-7583
▁ڈچ	-7584
▁یز	-7585
آغاز	-7586
ائزڈ	-7587
ائڈل	-7588
احمد	-7589
اریہ	-7590
اسطہ	-7591
الا۔	-7592
انڈے	-7593
اگان	-7594
بخار	-7595
بریت	-7596
بودا	-7597
بھتی	-7598
بھجن	-7599
طخ	-7600
غز	-7601
ئے۔	-7602
افق	-7603
ایب	-7604
بوں	-7605
شام	-7606
طری	-7607
فین	-7608
نیو	-7609
ولے	-7610
ووں	-7611
وٹا	-7612
ٹنے	-7613
گیز	-7614
یا۔	-7615
یکو	-7616
▁فگ	-7617
▁وپ	-7618
▁یخ	-7619
انٹی	-7620
تاسی	-7621
ترمہ	-7622
تیلہ	-7623
جاجی	-7624
جاست	-7625
جانب	-7626
جمعی	-7627
جھوڑ	-7628
حاشی	-7629
دریج	-7630
دملے	-7631
دمنی	-7632
راپی	-7633
رسول	-7634
روبا	-7635
روما	-7636
رینہ	-7637
زملا	-7638
زیگو	-7639
سائٹ	-7640
سروڈ	-7641
سواں	-7642
سویں	-7643
شعرا	-7644
شٹرا	-7645
طغرل	-7646
عموم	-7647
عنان	-7648
فسیر	-7649
قومی	-7650
لوبہ	-7651
محمد	-7652
مرکر	-7653
مقصد	-7654
مھیں	-7655
میرا	-7656
نامے	-7657
نجیر	-7658
ندرز	-7659
ندھے	-7660
نسار	-7661
نہیں	-7662
نیئر	-7663
واقع	-7664
وتری	-7665
وروں	-7666
ونیم	-7667
وپیا	-7668
ویمن	-7669
ِکام	-7670
ٹمور	-7671
پورا	-7672
پیوٹ	-7673
کھٹا	-7674
ھیال	-7675
ہاتی	-7676
ہوئے	-7677
ہوتی	-7678
یاےا	-7679
یقین	-7680
ینیم	-7681
یکوڈ	-7682
▁آئس	-7683
▁آمر	-7684
▁ارس	-7685
▁انے	-7686
▁اوہ	-7687
▁اٹک	-7688
▁اپل	-7689
▁بدی	-7690
▁برخ	-7691
▁بزد	-7692
▁بشر	-7693
▁بطخ	-7694
▁بقی	-7695
▁توچ	-7696
▁تک۔	-7697
▁جلے	-7698
▁جمی	-7699
بک	-7700
ثی	-7701
خم	-7702
آتی	-7703
ارض	-7704
ازی	-7705
امے	-7706
ثرہ	-7707
دھر	-7708
زول	-7709
لبی	-7710
ناٹ	-7711
واب	-7712
ویز	-7713
کاک	-7714
یما	-7715
یوم	-7716
یکہ	-7717
▁بش	-7718
اتحت	-7719
اتے۔	-7720
اصرہ	-7721
حالی	-7722
رتسر	-7723
ریوں	-7724
سوئی	-7725
صورت	-7726
قیقی	-7727
ونڈا	-7728
گاری	-7729
▁باآ	-7730
▁برش	-7731
▁بٹس	-7732
▁جھن	-7733
▁حاک	-7734
▁حرب	-7735
▁حرص	-7736
▁حیف	-7737
▁خشخ	-7738
▁خلش	-7739
▁دام	-7740
▁دلہ	-7741
▁دوا	-7742
▁دوگ	-7743
▁دھن	-7744
▁ذمے	-7745
▁ربڑ	-7746
▁رضا	-7747
▁رعب	-7748
▁ریم	-7749
▁زار	-7750
▁زلف	-7751
▁زید	-7752
▁سرک	-7753
▁سول	-7754
▁سپی	-7755
▁سچن	-7756
▁شاپ	-7757
▁صاب	-7758
▁طاق	-7759
▁ظفر	-7760
▁عدن	-7761
▁غزل	-7762
▁فائ	-7763
▁فجی	-7764
▁فصل	-7765
▁فطر	-7766
▁فنی	-7767
▁فیک	-7768
▁قضا	-7769
▁قول	-7770
▁لاش	-7771
▁لرز	-7772
▁لگن	-7773
▁لیب	-7774
▁مخد	-7775
▁ملب	-7776
▁مکھ	-7777
▁نسب	-7778
▁نصف	-7779
▁نیز	-7780
▁واز	-7781
▁وسط	-7782
▁ولن	-7783
▁ٹہل	-7784
▁پام	-7785
▁پخت	-7786
▁پِی	-7787
▁پھس	-7788
▁چشم	-7789
▁چمن	-7790
▁چوں	-7791
▁چکھ	-7792
▁ڈبے	-7793
▁ڈسپ	-7794
▁کرش	-7795
▁کعب	-7796
▁کنک	-7797
▁کنگ	-7798
▁کو۔	-7799
حے	-7800
زت	-7801
طو	-7802
پڑ	-7803
آئے	-7804
خدا	-7805
درے	-7806
زدل	-7807
واہ	-7808
وتہ	-7809
وڑا	-7810
ہاک	-7811
▁زح	-7812
▁فخ	-7813
▁نب	-7814
▁چِ	-7815
ادلہ	-7816
ارکٹ	-7817
اکید	-7818
زادی	-7819
سیوں	-7820
شوٹر	-7821
فیلی	-7822
کنار	-7823
یوتھ	-7824
▁بقا	-7825
▁دہی	-7826
▁رسن	-7827
▁ریل	-7828
▁سعد	-7829
▁قائ	-7830
▁مدر	-7831
▁ٹیب	-7832
▁پات	-7833
▁پتے	-7834
▁پست	-7835
▁کلا	-7836
▁کھر	-7837
▁کہت	-7838
▁کہی	-7839
▁کہے	-7840
▁کےب	-7841
▁گوا	-7842
▁ھے۔	-7843
▁ہام	-7844
▁ہجر	-7845
▁ہمن	-7846
▁ہوئ	-7847
▁ہوپ	-7848
▁ہوے	-7849
▁ہیل	-7850
▁یوا	-7851
ائزرز	-7852
ائنسز	-7853
اعمال	-7854
انکنے	-7855
اکانا	-7856
ایکسپ	-7857
بالغہ	-7858
تعلیم	-7859
جوائے	-7860
جہاد۔	-7861
حادثے	-7862
خصوصی	-7863
داعظم	-7864
دانیت	-7865
دیدار	-7866
ذرائع	-7867
رافیہ	-7868
رفراز	-7869
روشلم	-7870
رکہنا	-7871
ریقین	-7872
سائٹی	-7873
ساگان	-7874
سپتال	-7875
سیریز	-7876
طریقہ	-7877
عنوان	-7878
فائدہ	-7879
لائیں	-7880
لادیش	-7881
لوگوں	-7882
موروس	-7883
مہنگے	-7884
نوعیت	-7885
وارتی	-7886
واسطہ	-7887
وایا۔	-7888
ومکھی	-7889
ونسلے	-7890
ونشنز	-7891
ویلین	-7892
ویٹکن	-7893
ٹرانک	-7894
پرستی	-7895
پورٹس	-7896
کاروب	-7897
کرگیا	-7898
گیروں	-7899
بش	-7900
غل	-7901
اکے	-7902
قوف	-7903
لاگ	-7904
کوئ	-7905
▁بِ	-7906
▁ذم	-7907
▁وے	-7908
▁پج	-7909
▁ڈا	-7910
ائنگ	-7911
دردی	-7912
ردار	-7913
ریال	-7914
شالا	-7915
نگٹے	-7916
وسفی	-7917
▁ذوق	-7918
▁رول	-7919
▁ضوع	-7920
▁لڑک	-7921
▁نے۔	-7922
▁ونی	-7923
▁چمچ	-7924
▁کاس	-7925
▁کوآ	-7926
▁کیپ	-7927
بنانا	-7928
وریوں	-7929
ہوٹنگ	-7930
یابین	-7931
ینسکی	-7932
ینگےس	-7933
▁آبرو	-7934
▁آفات	-7935
▁آگئی	-7936
▁آگاہ	-7937
▁ئندہ	-7938
▁ائرس	-7939
▁ائیر	-7940
▁اجمل	-7941
▁ارتھ	-7942
▁اسسٹ	-7943
▁اسمت	-7944
▁الطب	-7945
▁الٹا	-7946
▁الٹے	-7947
▁امیگ	-7948
▁انٹل	-7949
▁اوجھ	-7950
▁اورم	-7951
▁اور۔	-7952
▁اگست	-7953
▁اگلا	-7954
▁اہلخ	-7955
▁ایجو	-7956
▁ایمر	-7957
▁ایمز	-7958
▁اینج	-7959
▁بابل	-7960
▁بازگ	-7961
▁بالغ	-7962
▁بجے۔	-7963
▁بخار	-7964
▁برسر	-7965
▁برسے	-7966
▁برلن	-7967
▁برٹش	-7968
▁برکت	-7969
▁بستہ	-7970
▁بسری	-7971
▁بقیہ	-7972
▁بلیم	-7973
▁بنجر	-7974
▁بنے۔	-7975
▁بوتے	-7976
▁بولٹ	-7977
▁بونا	-7978
▁بڈھا	-7979
▁بکرا	-7980
▁بکنگ	-7981
▁بگلے	-7982
▁بھوج	-7983
▁بھیڑ	-7984
▁بیحد	-7985
▁بیلج	-7986
▁بیکس	-7987
▁بےحد	-7988
▁تجھے	-7989
▁تدری	-7990
▁تندر	-7991
▁تنگی	-7992
▁تکلف	-7993
▁تھپڑ	-7994
▁ثاقب	-7995
▁ثانی	-7996
▁جائن	-7997
▁جزوی	-7998
▁جلتا	-7999
ئرن	-8000
دیر	-8001
سال	-8002
ضحی	-8003
لات	-8004
ماہ	-8005
▁آ۔	-8006
▁وخ	-8007
▁یے	-8008
املہ	-8009
مقدس	-8010
وائی	-8011
پہلے	-8012
ڈیسک	-8013
ھوری	-8014
▁آسک	-8015
▁الب	-8016
▁بور	-8017
▁دال	-8018
▁رکے	-8019
▁ساب	-8020
▁ساس	-8021
▁صفا	-8022
▁فلی	-8023
▁قون	-8024
▁لڑے	-8025
▁معر	-8026
▁میت	-8027
▁ورق	-8028
▁ٹوک	-8029
▁کری	-8030
▁کنی	-8031
▁یئے	-8032
الضحی	-8033
انہیں	-8034
راپنے	-8035
سٹروک	-8036
▁بلیک	-8037
▁بہتی	-8038
▁تائی	-8039
▁جلتی	-8040
▁جنبش	-8041
▁جنید	-8042
▁جوڈو	-8043
▁جچتا	-8044
▁جہنم	-8045
▁جہیز	-8046
▁حاشی	-8047
▁حدید	-8048
▁حرام	-8049
▁حقیق	-8050
▁حلیم	-8051
▁حلیہ	-8052
▁حمیت	-8053
▁خاصی	-8054
▁خدمت	-8055
▁خرقہ	-8056
▁خرچہ	-8057
▁خوفز	-8058
▁دارل	-8059
▁داشت	-8060
▁دلدل	-8061
▁دھون	-8062
▁دھڑے	-8063
▁ذخیر	-8064
▁ذمرہ	-8065
▁راوی	-8066
▁رتھر	-8067
▁رسنل	-8068
▁رضیہ	-8069
▁رمیز	-8070
▁رومن	-8071
▁رچرڈ	-8072
▁رکنا	-8073
▁ریچل	-8074
▁ریکا	-8075
▁زحمت	-8076
▁زونگ	-8077
▁زیاں	-8078
▁زیدہ	-8079
▁سبزہ	-8080
▁سروے	-8081
▁سریے	-8082
▁سمیع	-8083
▁سوئس	-8084
▁سولہ	-8085
▁سٹاک	-8086
▁سٹوڈ	-8087
▁سکنے	-8088
▁سہمی	-8089
▁سہیل	-8090
▁سیرت	-8091
▁سیرِ	-8092
▁سیشن	-8093
▁شاخس	-8094
▁شرعی	-8095
▁شلپا	-8096
▁شمال	-8097
▁شکوے	-8098
▁صفوں	-8099
ضر	-8100
دہا	-8101
نکے	-8102
ٹھے	-8103
چرز	-8104
کشی	-8105
کیہ	-8106
گرس	-8107
ینک	-8108
ابقت	-8109
اہیں	-8110
دانی	-8111
سارے	-8112
لیگی	-8113
ندکے	-8114
ھانے	-8115
▁تجھ	-8116
▁جسک	-8117
▁رست	-8118
▁رقی	-8119
▁مسز	-8120
▁منھ	-8121
▁میپ	-8122
▁پکی	-8123
▁چیت	-8124
▁کنس	-8125
▁کوج	-8126
▁کھڑ	-8127
اکرتی	-8128
رداری	-8129
وتاکی	-8130
▁ببان	-8131
▁بندہ	-8132
▁بچار	-8133
▁بہرے	-8134
▁تران	-8135
▁تعال	-8136
▁خوار	-8137
▁رقیب	-8138
▁سولر	-8139
▁شیلی	-8140
▁صمیم	-8141
▁ضمیر	-8142
▁طعنہ	-8143
▁ظہبی	-8144
▁عجوب	-8145
▁عصمت	-8146
▁غایب	-8147
▁غرضی	-8148
▁غیبی	-8149
▁فارخ	-8150
▁فالو	-8151
▁فریب	-8152
▁فلاپ	-8153
▁فلمی	-8154
▁فنون	-8155
▁فورس	-8156
▁فورم	-8157
▁فکرِ	-8158
▁فیکٹ	-8159
▁قابض	-8160
▁قاسم	-8161
▁قاصر	-8162
▁قاعد	-8163
▁قداں	-8164
▁لاوا	-8165
▁لاگت	-8166
▁لباد	-8167
▁لپیٹ	-8168
▁لڑکے	-8169
▁لہجے	-8170
▁لیگز	-8171
▁لیے۔	-8172
▁مانے	-8173
▁مایہ	-8174
▁متون	-8175
▁مجلس	-8176
▁مخاص	-8177
▁مرغی	-8178
▁مروت	-8179
▁مسلح	-8180
▁مسور	-8181
▁مشرک	-8182
▁مشقت	-8183
▁مطلق	-8184
▁معرض	-8185
▁مفکر	-8186
▁مودت	-8187
▁مورو	-8188
▁موٹو	-8189
▁مکھن	-8190
▁میڈل	-8191
▁میڈم	-8192
▁نازک	-8193
▁ناصر	-8194
▁نزول	-8195
▁نوحہ	-8196
▁نکات	-8197
▁نہلا	-8198
▁نیلو	-8199
ثرت	-8200
ختص	-8201
ختم	-8202
سیہ	-8203
صود	-8204
وین	-8205
▁ضد	-8206
▁وگ	-8207
▁ڈس	-8208
بیلی	-8209
جران	-8210
مختص	-8211
ناٹی	-8212
وینا	-8213
ٹیاں	-8214
کرنے	-8215
▁آجا	-8216
▁انص	-8217
▁خشک	-8218
▁درِ	-8219
▁دشم	-8220
▁سمج	-8221
▁شوٹ	-8222
▁شین	-8223
▁قلب	-8224
▁مشک	-8225
▁ملہ	-8226
▁نجم	-8227
▁واج	-8228
▁چکر	-8229
▁چھت	-8230
امیری	-8231
رمانی	-8232
پیوٹن	-8233
▁آپکی	-8234
▁باسط	-8235
▁براک	-8236
▁تھکا	-8237
▁جاجا	-8238
▁جزاک	-8239
▁دادی	-8240
▁دیکر	-8241
▁راہِ	-8242
▁رفیق	-8243
▁زدور	-8244
▁سارت	-8245
▁سرور	-8246
▁شکلا	-8247
▁عمرا	-8248
▁قرین	-8249
▁لگیں	-8250
▁منگل	-8251
▁مینی	-8252
▁نیلی	-8253
▁والہ	-8254
▁وحدت	-8255
▁وحشی	-8256
▁ورثہ	-8257
▁وزرا	-8258
▁وسنت	-8259
▁وسٹا	-8260
▁ولیس	-8261
▁ووٹر	-8262
▁ِکام	-8263
▁ٹوٹے	-8264
▁ٹیرا	-8265
▁ٹیوب	-8266
▁پات۔	-8267
▁پستی	-8268
▁پلاو	-8269
▁پلوں	-8270
▁پگڑی	-8271
▁پھسل	-8272
▁پھوڑ	-8273
▁پیرس	-8274
▁پیٹر	-8275
▁پیکج	-8276
▁چنتے	-8277
▁چکمہ	-8278
▁چکے۔	-8279
▁چھپی	-8280
▁چھڑی	-8281
▁چیچن	-8282
▁ڈانس	-8283
▁ڈبوں	-8284
▁ڈرتا	-8285
▁ڈپٹی	-8286
▁ڈھاک	-8287
▁ڈھلو	-8288
▁ڈیرے	-8289
▁ڈیوڈ	-8290
▁کارِ	-8291
▁کالز	-8292
▁کالے	-8293
▁کام۔	-8294
▁کرغز	-8295
▁کرپٹ	-8296
▁کریہ	-8297
▁کشمش	-8298
▁کلئے	-8299
اصح	-8300
برط	-8301
قعت	-8302
وبے	-8303
اروس	-8304
ارہا	-8305
بننے	-8306
حانہ	-8307
ریفک	-8308
نڈال	-8309
نڈنگ	-8310
کہری	-8311
یندر	-8312
۔۔جا	-8313
▁آفر	-8314
▁اہو	-8315
▁جاے	-8316
▁خرا	-8317
▁ریو	-8318
▁شبر	-8319
▁فنڈ	-8320
▁فوس	-8321
▁متب	-8322
▁مدح	-8323
▁مرگ	-8324
▁ناچ	-8325
▁ورک	-8326
▁کسر	-8327
وراکو	-8328
ینیڈا	-8329
▁ازبک	-8330
▁امنڈ	-8331
▁بلاک	-8332
▁بچنے	-8333
▁جوشی	-8334
▁جوکہ	-8335
▁طرف۔	-8336
▁مجرم	-8337
▁مذید	-8338
▁مرتا	-8339
▁مرقع	-8340
▁ناصح	-8341
▁وقعت	-8342
▁ٹھاک	-8343
▁ٹیبل	-8344
▁پڑوس	-8345
▁چلنا	-8346
▁چھاج	-8347
▁ڈائم	-8348
▁کلاک	-8349
▁کوان	-8350
▁کودو	-8351
▁کورا	-8352
▁کونہ	-8353
▁کپاس	-8354
▁کھلو	-8355
▁کھنگ	-8356
▁کھود	-8357
▁کھوں	-8358
▁کیفے	-8359
▁گائے	-8360
▁گاتی	-8361
▁گانے	-8362
▁گراف	-8363
▁گرام	-8364
▁گردے	-8365
▁گلاب	-8366
▁گلگت	-8367
▁گماں	-8368
▁گنوا	-8369
▁گوہر	-8370
▁گِنی	-8371
▁گھنا	-8372
▁ھمزہ	-8373
▁ھوگی	-8374
▁ھےکہ	-8375
▁ہارٹ	-8376
▁ہاری	-8377
▁ہاں۔	-8378
▁ہرار	-8379
▁ہراس	-8380
▁یزید	-8381
▁یکدم	-8382
▁یہان	-8383
ارہیں۔	-8384
ربردار	-8385
سائیکل	-8386
سونالی	-8387
شہریوں	-8388
لادیتا	-8389
لادیتی	-8390
لیکیشن	-8391
ماہرین	-8392
مبرانہ	-8393
محاورہ	-8394
مقابلے	-8395
ندرگاہ	-8396
وبصورت	-8397
وتاکیے	-8398
وسفیان	-8399
داری	-8400
داشت	-8401
▁ماج	-8402
▁نیٹ	-8403
▁چکن	-8404
▁گرز	-8405
ھیروں	-8406
▁آداب	-8407
▁اکیس	-8408
▁جرات	-8409
▁حسرت	-8410
▁راضی	-8411
یاےایف	-8412
▁آئیں۔	-8413
▁آئیے۔	-8414
▁آسودہ	-8415
▁آعوام	-8416
▁آفتاب	-8417
▁آمدنی	-8418
▁آمدید	-8419
▁آکریہ	-8420
▁ابستر	-8421
▁اتارا	-8422
▁اتریں	-8423
▁اخراج	-8424
▁ارادے	-8425
▁ارسطو	-8426
▁ارشاد	-8427
▁اروبا	-8428
▁ارڈرز	-8429
▁ازیری	-8430
▁اسلحے	-8431
▁اسمتھ	-8432
▁اسٹون	-8433
▁اسپنر	-8434
▁اسکور	-8435
▁اسکیم	-8436
▁اشارے	-8437
▁اشرار	-8438
▁اشعار	-8439
▁اقربا	-8440
▁الارض	-8441
▁الارم	-8442
▁الجھا	-8443
▁الطبع	-8444
▁المیہ	-8445
▁امانت	-8446
▁انتھک	-8447
▁انڈین	-8448
▁انگیز	-8449
▁اوجھل	-8450
▁اوراب	-8451
▁اورجو	-8452
▁اورنہ	-8453
▁اورکر	-8454
▁اورہر	-8455
▁اوریہ	-8456
▁اکٹھے	-8457
▁اکھٹے	-8458
▁اکہری	-8459
▁ایبلڈ	-8460
▁ایلوم	-8461
▁ایلپس	-8462
▁ایٹرز	-8463
▁ایپلی	-8464
▁باریش	-8465
▁بازیچ	-8466
▁باسکی	-8467
▁باعزت	-8468
▁بالکر	-8469
▁بانجھ	-8470
▁بانٹی	-8471
▁ببانگ	-8472
▁بتانا	-8473
▁بجانا	-8474
▁بجلی۔	-8475
▁بخشنے	-8476
▁بربری	-8477
▁برتنی	-8478
▁برستا	-8479
▁برہمی	-8480
▁بزدلی	-8481
▁بسیار	-8482
▁بلایا	-8483
▁بلندی	-8484
▁بنتی۔	-8485
▁بنکاک	-8486
▁بولتی	-8487
▁بچھڑے	-8488
▁بگاہے	-8489
▁بھاگم	-8490
▁بھیگے	-8491
▁بہائی	-8492
▁بیباک	-8493
▁بیجنگ	-8494
▁بیونس	-8495
▁بیٹھو	-8496
▁تاویل	-8497
▁تاکید	-8498
▁تبلیغ	-8499
▁تجربے	-8500
▁ترانہ	-8501
▁ترجمے	-8502
▁تفتیش	-8503
▁تفسیر	-8504
▁تقابل	-8505
▁تقدیر	-8506
▁تلخیِ	-8507
▁تناسب	-8508
▁تنویر	-8509
▁توچند	-8510
▁تڑپنا	-8511
▁تھامس	-8512
▁تھانے	-8513
▁تیرنا	-8514
▁تینوں	-8515
▁جاتا۔	-8516
▁جاتیں	-8517
▁جاتی۔	-8518
▁جزیرہ	-8519
▁جزیری	-8520
▁جمشید	-8521
▁جمہور	-8522
▁جمیکا	-8523
▁جنونی	-8524
▁جنیوا	-8525
▁جوشوا	-8526
▁جھاڑا	-8527
▁جھنڈے	-8528
▁جہنوں	-8529
▁حاضری	-8530
▁حافظے	-8531
▁خلائی	-8532
▁خلیجی	-8533
▁خوروں	-8534
▁دائیں	-8535
▁دبانے	-8536
▁دبایا	-8537
▁درآمد	-8538
▁دربار	-8539
▁دستور	-8540
▁دسواں	-8541
▁دشوار	-8542
▁دفاتر	-8543
▁دلائل	-8544
▁دماغی	-8545
▁دنیا۔	-8546
▁دوائی	-8547
▁دکھنے	-8548
▁دکھوں	-8549
▁دھاوا	-8550
▁دھرتی	-8551
▁دھرنا	-8552
▁دہلیز	-8553
▁دیجیے	-8554
▁دیرپا	-8555
▁ذہانت	-8556
▁راشدی	-8557
▁راہیں	-8558
▁رباعی	-8559
▁رسیدہ	-8560
▁رنویر	-8561
▁رنگوں	-8562
▁روٹین	-8563
▁روکتے	-8564
▁رکازی	-8565
▁رکھیں	-8566
▁ریسلر	-8567
▁ریمنڈ	-8568
▁زنجیر	-8569
▁زنداں	-8570
▁سابقہ	-8571
▁سادگی	-8572
▁سارتر	-8573
▁ستارے	-8574
▁سرائے	-8575
▁سراپا	-8576
▁سرحدی	-8577
▁سردست	-8578
▁سفارت	-8579
▁سنادی	-8580
▁سندھی	-8581
▁سنسنی	-8582
▁سواتی	-8583
▁سویڈن	-8584
▁سٹروک	-8585
▁سٹیزن	-8586
▁سپیشل	-8587
▁سپیڈ۔	-8588
▁سپیکر	-8589
▁سکائی	-8590
▁سکرین	-8591
▁سہواگ	-8592
▁سیارہ	-8593
▁سیفٹی	-8594
▁سیکرٹ	-8595
▁سےپید	-8596
▁شاپنگ	-8597
▁شتیلہ	-8598
▁شردہا	-8599
▁شعائر	-8600
▁شعبوں	-8601
▁شمشاد	-8602
▁شوقین	-8603
▁شیٹھی	-8604
▁صابرہ	-8605
▁صحیفہ	-8606
▁صدیوں	-8607
▁ضربیں	-8608
▁طریقِ	-8609
▁طفیلی	-8610
▁طورخم	-8611
▁طےشدہ	-8612
▁عجائب	-8613
▁عجوبہ	-8614
▁عدنان	-8615
▁عرفات	-8616
▁عقیدے	-8617
▁علالت	-8618
▁غصےپر	-8619
▁غمگین	-8620
▁فارسی	-8621
▁فاطمی	-8622
▁فتووں	-8623
▁فحاشی	-8624
▁فراٹے	-8625
▁فرحان	-8626
▁فریزر	-8627
▁فوائد	-8628
▁فوائل	-8629
▁فیچرز	-8630
▁قابلِ	-8631
▁قومیں	-8632
▁قونصل	-8633
▁لاپتہ	-8634
▁لباسِ	-8635
▁للکار	-8636
▁لٹیرے	-8637
▁لگاتی	-8638
▁لگاکر	-8639
▁لیبیا	-8640
▁لیموں	-8641
▁لینا۔	-8642
▁ماتحت	-8643
▁مادیت	-8644
▁ماننے	-8645
▁مانے۔	-8646
▁مبادل	-8647
▁مبنی۔	-8648
▁مبینہ	-8649
▁متضاد	-8650
▁متعین	-8651
▁مثالی	-8652
▁مجسمہ	-8653
▁محافل	-8654
▁مخواہ	-8655
▁مدرسہ	-8656
▁مردوں	-8657
▁مسالک	-8658
▁مسلمہ	-8659
▁مسلکی	-8660
▁مصوری	-8661
▁مطلبی	-8662
▁معاف۔	-8663
▁معترف	-8664
▁معجزہ	-8665
▁معرکے	-8666
▁معزول	-8667
▁معقول	-8668
▁مقتدی	-8669
▁مقررہ	-8670
▁مقصود	-8671
▁مقولہ	-8672
▁ملامت	-8673
▁ملانے	-8674
▁ملبوس	-8675
▁ملتا۔	-8676
▁ملتوی	-8677
▁ملکیت	-8678
▁ممنوع	-8679
▁ممکنہ	-8680
▁منحرف	-8681
▁منسوب	-8682
▁منصبی	-8683
▁منظرِ	-8684
▁منقول	-8685
▁منکسر	-8686
▁موانگ	-8687
▁موقوف	-8688
▁مولوی	-8689
▁مچلتا	-8690
▁میںیہ	-8691
▁ناداں	-8692
▁ناپنے	-8693
▁نایاب	-8694
▁نثاری	-8695
▁نجاست	-8696
▁ندامت	-8697
▁ندیاں	-8698
▁نرالا	-8699
▁نسبتا	-8700
▁نسلیں	-8701
▁نظارے	-8702
▁نمبری	-8703
▁نواجو	-8704
▁نوالہ	-8705
▁نوٹوں	-8706
▁نوکیا	-8707
▁نکلی۔	-8708
▁نیپال	-8709
▁وارنر	-8710
▁واسطہ	-8711
▁ورکرز	-8712
▁وزوال	-8713
▁وزیرخ	-8714
▁ونگار	-8715
▁ووٹنگ	-8716
▁وپکار	-8717
▁وڈیرے	-8718
▁ٹائون	-8719
▁ٹاکرا	-8720
▁ٹرکوں	-8721
▁ٹریفک	-8722
▁ٹورڈی	-8723
▁ٹونٹی	-8724
▁ٹوکیو	-8725
▁ٹھیکا	-8726
▁ٹیلنٹ	-8727
▁پجارا	-8728
▁پدمنی	-8729
▁پراپر	-8730
▁پرجوش	-8731
▁پردوں	-8732
▁پرسنل	-8733
▁پروری	-8734
▁پریرا	-8735
▁پناہی	-8736
▁پنڈال	-8737
▁پولنگ	-8738
▁پِیٹھ	-8739
▁پڑگئی	-8740
▁پکارا	-8741
▁پھرتا	-8742
▁پھرتی	-8743
▁پھروں	-8744
▁پہلے۔	-8745
▁پیروی	-8746
▁پیسکو	-8747
▁پیپسی	-8748
▁پیکار	-8749
▁چاھیے	-8750
▁چاہیں	-8751
▁چبھتی	-8752
▁چمکتا	-8753
▁چندسو	-8754
▁چڑھتے	-8755
▁چھری۔	-8756
▁چھلنی	-8757
▁چھوڑا	-8758
▁چھوڑے	-8759
▁چیخنے	-8760
▁ڈالو۔	-8761
▁ڈرافٹ	-8762
▁ڈیگال	-8763
▁ڈےانگ	-8764
▁کانام	-8765
▁کانوں	-8766
▁کراچے	-8767
▁کرسکی	-8768
▁کرشمہ	-8769
▁کرچکا	-8770
▁کمبلے	-8771
▁کندھے	-8772
▁کنٹری	-8773
▁کورٹ۔	-8774
▁کوسٹا	-8775
▁کوشاں	-8776
▁کٹائو	-8777
▁کھاتی	-8778
▁کھارے	-8779
▁کھڑکی	-8780
▁کہاں۔	-8781
▁کیانی	-8782
▁کےبعد	-8783
▁کےنام	-8784
▁گذشتہ	-8785
▁گرافر	-8786
▁گرامی	-8787
▁گروہی	-8788
▁گلیڈی	-8789
▁گھنٹی	-8790
▁گھوڑا	-8791
▁گھٹتی	-8792
▁گیمنگ	-8793
▁گینڈا	-8794
▁ہائیر	-8795
▁ہمنوا	-8796
▁ہنستے	-8797
▁ہوبھی	-8798
▁ہونےو	-8799
▁ہٹایا	-8800
▁ہیروز	-8801
▁ہیں۔۔	-8802
▁یورپا	-8803
▁یوسین	-8804
2663073	-8805
2663074	-8806
ارکٹیکا	-8807
ارہاہے۔	-8808
الکلامی	-8809
اورمرکر	-8810
برداروں	-8811
ورداران	-8812
کاروبار	-8813
▁آئیندہ	-8814
▁آئیوری	-8815
▁آتاہے۔	-8816
▁ئرلینڈ	-8817
▁ادارتی	-8818
▁ادھوری	-8819
▁ادھورے	-8820
▁ارطغرل	-8821
▁استعفی	-8822
▁استعما	-8823
▁اسسٹنٹ	-8824
▁اسٹریٹ	-8825
▁اسٹیلز	-8826
▁اسپینش	-8827
▁اسکواش	-8828
▁اشاریہ	-8829
▁اصولوں	-8830
▁الشعرا	-8831
▁العنان	-8832
▁المزاج	-8833
▁المیوں	-8834
▁الواقع	-8835
▁الٹائی	-8836
▁امرتسر	-8837
▁امسئلہ	-8838
▁اندھیر	-8839
▁انوکھا	-8840
▁انکاری	-8841
▁انکھوں	-8842
▁انگریس	-8843
▁اوربعض	-8844
▁اورچیز	-8845
▁اوریوں	-8846
▁اوپنرز	-8847
▁اِتوار	-8848
▁اچھائی	-8849
▁ایشائی	-8850
▁ایندھن	-8851
▁ایڈورڈ	-8852
▁ایڈہاک	-8853
▁بازگشت	-8854
▁بالائی	-8855
▁بتائیں	-8856
▁بتدریج	-8857
▁برائڈل	-8858
▁برونڈی	-8859
▁بمبارا	-8860
▁بوسنیا	-8861
▁بگولوں	-8862
▁بھیجنے	-8863
▁بیانات	-8864
▁بیسیوں	-8865
▁بیلجیم	-8866
▁بینائی	-8867
▁بیندرے	-8868
▁بینکنگ	-8869
▁بیٹھے۔	-8870
▁بیچارہ	-8871
▁تاحیات	-8872
▁تبادلہ	-8873
▁تحقیقی	-8874
▁ترانوں	-8875
▁تصورات	-8876
▁تھراپی	-8877
▁جاسکیں	-8878
▁جانشین	-8879
▁جلدختم	-8880
▁جوانوں	-8881
▁جولیان	-8882
▁جونیئر	-8883
▁جھومتی	-8884
▁حادثات	-8885
▁حدیبیہ	-8886
▁حقیقتا	-8887
▁حیرانی	-8888
▁خشخبری	-8889
▁خطاوار	-8890
▁خوانگی	-8891
▁خوبیاں	-8892
▁خوبیوں	-8893
▁خودکار	-8894
▁خوفزدہ	-8895
▁خوفناک	-8896
▁دریافت	-8897
▁دستگیر	-8898
▁دلجمعی	-8899
▁دکھایا	-8900
▁دھراتے	-8901
▁دھلائی	-8902
▁دھماکے	-8903
▁دھونا۔	-8904
▁دہرائی	-8905
▁دہرائے	-8906
▁دیکھو۔	-8907
▁دیہاتی	-8908
▁ذرداری	-8909
▁رائزرز	-8910
▁راستوں	-8911
▁رفتاری	-8912
▁روزقبل	-8913
▁روسیوں	-8914
▁رونگٹے	-8915
▁رکھتیں	-8916
▁رکھیئے	-8917
▁رہنماں	-8918
▁ریسکیو	-8919
▁ریپبلک	-8920
▁زندگی۔	-8921
▁سعودیہ	-8922
▁سلطانہ	-8923
▁سماوات	-8924
▁سمجھتی	-8925
▁سنائیو	-8926
▁سوئٹزر	-8927
▁سوالیہ	-8928
▁سٹالوں	-8929
▁سٹوڈنٹ	-8930
▁سکولوں	-8931
▁سکھاتا	-8932
▁سکھانا	-8933
▁سکھانے	-8934
▁سکینڈل	-8935
▁سیاحوں	-8936
▁سیکٹرز	-8937
▁سیکھنا	-8938
▁سےمقدس	-8939
▁شادیاں	-8940
▁شرابور	-8941
▁شرمندہ	-8942
▁شریفیہ	-8943
▁شعاعوں	-8944
▁شعاعیں	-8945
▁شکرمیں	-8946
▁طبقاتی	-8947
▁طوفان۔	-8948
▁طیاروں	-8949
▁فرسودہ	-8950
▁فشانوں	-8951
▁فنتاسی	-8952
▁فٹبالر	-8953
▁فہمیدہ	-8954
▁فیلڈنگ	-8955
▁قلندرز	-8956
▁لائنیں	-8957
▁لالیگا	-8958
▁لڑکیاں	-8959
▁لیااور	-8960
▁لیتیں۔	-8961
▁لیجئے۔	-8962
▁ماہانہ	-8963
▁مبالغہ	-8964
▁متاثرہ	-8965
▁متحارب	-8966
▁متواتر	-8967
▁محاربہ	-8968
▁محاصرہ	-8969
▁محترمہ	-8970
▁مخاصمت	-8971
▁مددملے	-8972
▁مزاحیہ	-8973
▁مستعدی	-8974
▁مسلمات	-8975
▁مشاورت	-8976
▁مشینوں	-8977
▁مصنفین	-8978
▁مضمرات	-8979
▁مطلوبہ	-8980
▁مظاہرے	-8981
▁معاہدہ	-8982
▁معلوم۔	-8983
▁ملایا۔	-8984
▁ملزملا	-8985
▁ملنسار	-8986
▁منافعے	-8987
▁منظریہ	-8988
▁موراکو	-8989
▁موٹاپے	-8990
▁میںبند	-8991
▁ناجائز	-8992
▁ناکام۔	-8993
▁نمٹائے	-8994
▁ننھیال	-8995
▁نہلانا	-8996
▁نیکیوں	-8997
▁نےمحمد	-8998
▁واریاں	-8999
▁واٹمور	-9000
▁ِکاملہ	-9001
▁ٹائپنگ	-9002
▁ٹانگوں	-9003
▁ٹرینیں	-9004
▁ٹوپیاں	-9005
▁ٹکرائے	-9006
▁ٹکراتی	-9007
▁پارینہ	-9008
▁پتھروں	-9009
▁پرسندھ	-9010
▁پروموٹ	-9011
▁پویلین	-9012
▁پویٹکن	-9013
▁پڑھاتے	-9014
▁پڑھانے	-9015
▁پگھلتے	-9016
▁پہنچنا	-9017
▁پینتیس	-9018
▁چاکلیٹ	-9019
▁چاہییں	-9020
▁چلائیں	-9021
▁چنبیلی	-9022
▁چومکھی	-9023
▁چھانٹی	-9024
▁چھوڑیں	-9025
▁چھپایا	-9026
▁ڈائمنڈ	-9027
▁ڈاکٹرس	-9028
▁ڈرائیو	-9029
▁ڈکٹیشن	-9030
▁ڈھلوان	-9031
▁ڈھٹائی	-9032
▁کاآغاز	-9033
▁کارندے	-9034
▁کاندھا	-9035
▁کانگرس	-9036
▁کاکوئی	-9037
▁کردیتی	-9038
▁کردیں۔	-9039
▁کسانوں	-9040
▁کلہاڑا	-9041
▁کوبخار	-9042
▁کوششیں	-9043
▁کویقین	-9044
▁کٹوانے	-9045
▁کپروما	-9046
▁کھانسی	-9047
▁کھایا۔	-9048
▁کھیلتے	-9049
▁کھینچی	-9050
▁کہلاتا	-9051
▁کیجانب	-9052
▁کیجیے۔	-9053
▁کیمپوں	-9054
▁گجراتی	-9055
▁گذارتے	-9056
▁گرفتار	-9057
▁گوادرب	-9058
▁گھریلو	-9059
▁گھومتے	-9060
▁ہارگیا	-9061
▁ہتھیار	-9062
▁ہربھجن	-9063
▁ہرزیگو	-9064
▁ہمدردی	-9065
▁ہمکنار	-9066
▁ہندسوں	-9067
▁ہنگامے	-9068
▁ہوجایا	-9069
▁ہوگئیں	-9070
▁ہیمپٹن	-9071
▁ہیڈکوچ	-9072
▁یروشلم	-9073
▁یوروپی	-9074
ایکسپورٹ	-9075
جرانوالہ	-9076
پاکستانی	-9077
▁آخراپنے	-9078
▁آرزوئیں	-9079
▁آمریتوں	-9080
▁ائرلائن	-9081
▁ائیسویں	-9082
▁احتجاجی	-9083
▁استعارہ	-9084
▁اشرافیہ	-9085
▁افواہوں	-9086
▁افواہیں	-9087
▁القادری	-9088
▁المونیم	-9089
▁انتھونی	-9090
▁انجوائے	-9091
▁انٹیگوا	-9092
▁اورمیرا	-9093
▁اٹلانٹک	-9094
▁اہلخانہ	-9095
▁اینسروڈ	-9096
▁باآسانی	-9097
▁باربودا	-9098
▁بارہواں	-9099
▁بازاروں	-9100
▁باقائدہ	-9101
▁بالعموم	-9102
▁بداعمال	-9103
▁بدعنوان	-9104
▁براکیوں	-9105
▁بلغاریہ	-9106
▁بلندیوں	-9107
▁بندھانے	-9108
▁بڑھوتری	-9109
▁بیلجیئن	-9110
▁تائیوان	-9111
▁ترتیبات	-9112
▁تریشالا	-9113
▁تصوارتی	-9114
▁تنازعات	-9115
▁تندرستی	-9116
▁تنظیموں	-9117
▁تنڈولکر	-9118
▁تہذیبوں	-9119
▁جاتاہے۔	-9120
▁جارحانہ	-9121
▁جاسکتا۔	-9122
▁جھانکنے	-9123
▁جھنجھوڑ	-9124
▁جھینگوں	-9125
▁جیاےایف	-9126
▁حکومتیں	-9127
▁خاندانی	-9128
▁خرابیاں	-9129
▁خواہانہ	-9130
▁خواہشیں	-9131
▁خوشحالی	-9132
▁دلادیتی	-9133
▁دکھائیے	-9134
▁دکھائے۔	-9135
▁دکھایا۔	-9136
▁دھمکیوں	-9137
▁دیکھیں۔	-9138
▁ذرامیری	-9139
▁رعایتیں	-9140
▁رپورٹنگ	-9141
▁رکاوٹوں	-9142
▁سرفہرست	-9143
▁سرپرستی	-9144
▁سماعتیں	-9145
▁سمجھاتا	-9146
▁سمجھانا	-9147
▁سمجھانے	-9148
▁سمجھایا	-9149
▁سمجھوتہ	-9150
▁سنسناٹی	-9151
▁سوسائٹی	-9152
▁سولائزڈ	-9153
▁سویابین	-9154
▁سٹریلوی	-9155
▁سیکٹرکی	-9156
▁سےفائدہ	-9157
▁شعرکہنا	-9158
▁صدربننے	-9159
▁عصبیتیں	-9160
▁عہدیدار	-9161
▁فائنلسٹ	-9162
▁فائنڈنگ	-9163
▁فرمائیں	-9164
▁قرارداد	-9165
▁لاچاروں	-9166
▁لیورپول	-9167
▁لیگویمن	-9168
▁مادھوری	-9169
▁مالیاتی	-9170
▁مذاکرتی	-9171
▁مزیداِس	-9172
▁مسافروں	-9173
▁مسلمانی	-9174
▁مسکرانا	-9175
▁مصروفیت	-9176
▁مظلوموں	-9177
▁معاہدوں	-9178
▁منوایا۔	-9179
▁مواقعوں	-9180
▁میںکرنے	-9181
▁ناقابلِ	-9182
▁نبھایا۔	-9183
▁وحدانیت	-9184
▁وگریباں	-9185
▁ویبسائٹ	-9186
▁ٹھہرتا۔	-9187
▁ٹیمپرنگ	-9188
▁پانچویں	-9189
▁پختونوں	-9190
▁پراسرار	-9191
▁پروازیں	-9192
▁پھیلائے	-9193
▁پھیلایا	-9194
▁چلتاہے۔	-9195
▁چھینکنے	-9196
▁ڈائیلاگ	-9197
▁ڈائیونگ	-9198
▁ڈھانپتے	-9199
▁کارنامے	-9200
▁کاطریقہ	-9201
▁کافیصلہ	-9202
▁کرتاہوں	-9203
▁کرتوتوں	-9204
▁کرینگےس	-9205
▁کلاس۔۔۔	-9206
▁کمیٹیوں	-9207
▁کنونشنز	-9208
▁کوموروس	-9209
▁کٹاکانا	-9210
▁کھلونوں	-9211
▁کھوکھلا	-9212
▁کھٹکھٹا	-9213
▁کھیلانے	-9214
▁کہتاتھا	-9215
▁کیربئین	-9216
▁کےعلاوہ	-9217
▁گھرپہنچ	-9218
▁گھونسلے	-9219
▁یاحادثے	-9220
▁یادداشت	-9221
▁یونیکوڈ	-9222
▁ابوسفیان	-9223
▁امیرترین	-9224
▁امیگریشن	-9225
▁اندھیروں	-9226
▁اورجہاد۔	-9227
▁اورنوعیت	-9228
▁اورہوٹنگ	-9229
▁اپلائنسز	-9230
▁ایئرلائن	-9231
▁ایتھلیٹس	-9232
▁ایتھوپیا	-9233
▁ایجوکیشن	-9234
▁ایکسپائر	-9235
▁بالواسطہ	-9236
▁برٹینسکی	-9237
▁بغیرکوئی	-9238
▁بنگلادیش	-9239
▁بھوجپوری	-9240
▁تبدیلیوں	-9241
▁تنخواہوں	-9242
▁داستانیں	-9243
▁دکھلائیں	-9244
▁دیوبندکے	-9245
▁راہگیروں	-9246
▁زمبابوبے	-9247
▁زیرتعلیم	-9248
▁سنبھالنے	-9249
▁صاحبزادی	-9250
▁عیدالضحی	-9251
▁قائداعظم	-9252
▁لکھاریوں	-9253
▁محاذوںپر	-9254
▁ملاقاتیں	-9255
▁مینیجمنٹ	-9256
▁نافرمانی	-9257
▁نکلےہوئے	-9258
▁پسندیدگی	-9259
▁پیداواری	-9260
▁پیراشوٹر	-9261
▁کاکینیڈا	-9262
▁کرغزستان	-9263
▁کرنیوالے	-9264
▁کمزوریوں	-9265
▁کھانےنکے	-9266
▁کھنگالا۔	-9267
▁ہوسکتاہے	-9268
▁یونیفارم	-9269
اورمرکرآئے	-9270
مہنگےذرائع	-9271
▁الیکٹرانک	-9272
▁اورسونالی	-9273
▁اورمحاورہ	-9274
▁ایلومینیم	-9275
▁ایپلیکیشن	-9276
▁خاطرلوگوں	-9277
▁خیزمقابلے	-9278
▁دارلحکومت	-9279
▁سےپیداوار	-9280
▁شکستسیریز	-9281
▁مہاراشٹرا	-9282
▁نادہندگان	-9283
▁نواجوانوں	-9284
▁وینٹیلیٹر	-9285
▁پریشانیوں	-9286
▁پھیلادیتا	-9287
▁پیغمبرانہ	-9288
▁پیٹرساگان	-9289
▁ڈےانگلینڈ	-9290
▁کامیابیوں	-9291
▁کوکاروبار	-9292
▁کیلئےمختص	-9293
▁ہزارافراد	-9294
▁اسٹریلیاکے	-9295
▁امیتابھبچن	-9296
▁انٹارکٹیکا	-9297
▁اورخوبصورت	-9298
▁برخورداران	-9299
▁تجاوزکرگیا	-9300
▁سمجھوتاکیے	-9301
▁علمبرداروں	-9302
▁مسافربردار	-9303
▁ملزملازمین	-9304
▁پرایکسپورٹ	-9305
▁کوجارہاہے۔	-9306
▁ہدایتکاروں	-9307
▁ہرزیگووینا	-9308
▁انعقادپیوٹن	-9309
▁سرمایہکاروں	-9310
▁فرانسسائیکل	-9311
▁قادرالکلامی	-9312
▁ٹیسٹپاکستان	-9313
▁ڈسمبرایجنسی	-9314
▁کولاقانونیت	-9315
▁یونیورسٹیوں	-9316
▁تاجروںشہریوں	-9317
▁سیریزپاکستان	-9318
▁کرینگےسرفراز	-9319
▁گوادربندرگاہ	-9320
▁گیمزپاکستانی	-9321
▁اضافہمہنگےذرائع	-9322
▁کرگئےاورمرکرآئے	-9323
بجا	-9324
بضہ	-9325
جدے	-9326
رپٹ	-9327
رکت	-9328
طعا	-9329
عقل	-9330
عنت	-9331
نبھ	-9332
وئل	-9333
ں۔۔	-9334
۔جا	-9335
ابطی	-9336
اختہ	-9337
ارڈز	-9338
اقان	-9339
الاق	-9340
الڈو	-9341
انتظ	-9342
انسر	-9343
انشا	-9344
ایسے	-9345
بارٹ	-9346
باکو	-9347
بدیہ	-9348
تیرہ	-9349
ثیری	-9350
جسٹم	-9351
جنٹس	-9352
حدود	-9353
رازی	-9354
ریحا	-9355
زدوں	-9356
زنشل	-9357
سسٹم	-9358
سولی	-9359
شرکا	-9360
شمان	-9361
شمول	-9362
شناہ	-9363
شوگی	-9364
طینہ	-9365
عباس	-9366
علما	-9367
فارش	-9368
فوج۔	-9369
فہوم	-9370
میڈی	-9371
نازع	-9372
نازک	-9373
ناچا	-9374
نبھے	-9375
نشاہ	-9376
نورے	-9377
وانڈ	-9378
وباش	-9379
وفرو	-9380
ِغیب	-9381
پناٹ	-9382
پینو	-9383
چھاڑ	-9384
ڈریا	-9385
ڈیلو	-9386
کاغذ	-9387
کبیر	-9388
کوئز	-9389
کپڑے	-9390
کیسے	-9391
گیا۔	-9392
یکٹو	-9393
▁آقا	-9394
▁اشد	-9395
▁اغی	-9396
▁اِک	-9397
▁تدف	-9398
▁تفہ	-9399
پرڈ	-9400
کسے	-9401
ہوا	-9402
▁ظہ	-9403
التہ	-9404
بالا	-9405
علوم	-9406
عنقا	-9407
▁تلخ	-9408
▁جزئ	-9409
▁حشر	-9410
▁حوث	-9411
▁داو	-9412
▁ردِ	-9413
▁رشو	-9414
▁زدِ	-9415
▁سگے	-9416
▁سہہ	-9417
▁شدد	-9418
▁شمع	-9419
▁صفح	-9420
▁عاش	-9421
▁عکس	-9422
▁غزہ	-9423
▁فلن	-9424
▁فگن	-9425
▁لغت	-9426
▁لٹل	-9427
▁لہج	-9428
▁نیچ	-9429
▁وخش	-9430
▁وصل	-9431
▁وضع	-9432
▁وقو	-9433
▁ٹرن	-9434
▁پلٹ	-9435
▁پمپ	-9436
▁پوچ	-9437
▁پٹو	-9438
▁چاھ	-9439
▁چوپ	-9440
▁چہی	-9441
▁کنو	-9442
▁کنڑ	-9443
▁گنت	-9444
▁ہاگ	-9445
▁ہضم	-9446
▁ہڈی	-9447
▁ہہن	-9448
▁یسے	-9449
▁یکط	-9450
آشناہ	-9451
ائندہ	-9452
ائیکا	-9453
ائیکی	-9454
اجواب	-9455
اروسی	-9456
اسٹار	-9457
الرحم	-9458
انکپن	-9459
اویلے	-9460
اکرنے	-9461
بنانی	-9462
جئیے۔	-9463
جائے۔	-9464
حادثہ	-9465
درآمد	-9466
دھرنے	-9467
رانٹو	-9468
راہیم	-9469
رہبرا	-9470
ریٹری	-9471
سریاں	-9472
شتراک	-9473
عاملہ	-9474
ماعتی	-9475
منٹوں	-9476
مودود	-9477
واراڑ	-9478
وانڈو	-9479
ورکری	-9480
ونٹین	-9481
وکروں	-9482
ٹفکیٹ	-9483
پرندے	-9484
پولیس	-9485
ڈوادی	-9486
کردیا	-9487
کلیئر	-9488
کوسکی	-9489
کولمب	-9490
کیشنل	-9491
گاہوں	-9492
یروئی	-9493
یمیٹی	-9494
یوٹنگ	-9495
▁آئرن	-9496
▁آتما	-9497
▁آراق	-9498
▁آرسی	-9499
اضی	-9500
اڑو	-9501
ڈلز	-9502
ھا۔	-9503
شہید	-9504
میشہ	-9505
واتے	-9506
ٹسوب	-9507
ڈئیم	-9508
▁اشک	-9509
▁خضر	-9510
▁رخی	-9511
▁ماپ	-9512
▁مفل	-9513
ائلٹس	-9514
انکار	-9515
▁آمدن	-9516
▁آویز	-9517
▁آیا۔	-9518
▁ارتک	-9519
▁ارمی	-9520
▁اریٹ	-9521
▁اطال	-9522
▁اعضا	-9523
▁الوط	-9524
▁الہن	-9525
▁اٹام	-9526
▁اٹبر	-9527
▁اٹکا	-9528
▁اٹھی	-9529
▁اچار	-9530
▁اڑتی	-9531
▁ایپٹ	-9532
▁ایگز	-9533
▁بائر	-9534
▁بابا	-9535
▁بابر	-9536
▁باشع	-9537
▁باغا	-9538
▁بانس	-9539
▁برآں	-9540
▁برتر	-9541
▁بریڈ	-9542
▁بسنت	-9543
▁بعید	-9544
▁بلاو	-9545
▁بنی۔	-9546
▁بٹور	-9547
▁بکری	-9548
▁بکسے	-9549
▁بگلا	-9550
▁بھاڑ	-9551
▁بھوت	-9552
▁بیٹس	-9553
▁بیکٹ	-9554
▁تارڑ	-9555
▁تجلی	-9556
▁تنزل	-9557
▁تکیہ	-9558
▁ثواب	-9559
▁جامو	-9560
▁ججوں	-9561
▁جرسی	-9562
▁جمعہ	-9563
▁جوڑے	-9564
▁جکڑا	-9565
▁جکڑے	-9566
▁جھون	-9567
▁جھیل	-9568
▁حقیر	-9569
▁حلقہ	-9570
▁حمائ	-9571
▁خاکم	-9572
▁خبرد	-9573
▁خراج	-9574
▁خرچا	-9575
▁خشوع	-9576
▁خلیج	-9577
▁خمار	-9578
▁داتا	-9579
▁داوچ	-9580
▁درجن	-9581
▁درجِ	-9582
▁دردِ	-9583
▁دستر	-9584
▁دستہ	-9585
▁دستی	-9586
▁دھاڑ	-9587
▁دہلا	-9588
▁دیگا	-9589
▁ذیلی	-9590
▁رابط	-9591
▁راشد	-9592
▁راکی	-9593
▁راہد	-9594
▁راہل	-9595
▁رحمد	-9596
▁رستم	-9597
▁رسما	-9598
▁رشوت	-9599
جوا	-9600
فقہ	-9601
نہی	-9602
ڈمے	-9603
بہار	-9604
جومی	-9605
عاتی	-9606
غازی	-9607
لاجو	-9608
نہار	-9609
چیور	-9610
ھرمٹ	-9611
یکسن	-9612
▁بقہ	-9613
▁تیغ	-9614
▁رکو	-9615
▁شہد	-9616
▁عسک	-9617
▁عوض	-9618
▁مبہ	-9619
▁مضح	-9620
▁مہک	-9621
ئیڈمے	-9622
جانوں	-9623
دانوں	-9624
عوامی	-9625
وزبان	-9626
ڈیلوپ	-9627
کانوں	-9628
▁ایمب	-9629
▁تصوف	-9630
▁تیغِ	-9631
▁دھلا	-9632
▁دھند	-9633
▁دھکا	-9634
▁رفتہ	-9635
▁رفقا	-9636
▁رنجش	-9637
▁رومز	-9638
▁روڑے	-9639
▁رکان	-9640
▁رکشہ	-9641
▁ریڑھ	-9642
▁ریگن	-9643
▁زرور	-9644
▁زریں	-9645
▁زیور	-9646
▁سانچ	-9647
▁سباق	-9648
▁سجدے	-9649
▁سروج	-9650
▁سروش	-9651
▁سنیے	-9652
▁سوجن	-9653
▁سونم	-9654
▁سونپ	-9655
▁سٹنٹ	-9656
▁سٹیگ	-9657
▁سپاہ	-9658
▁سپرب	-9659
▁سکاٹ	-9660
▁سکوت	-9661
▁سکھا	-9662
▁سیرس	-9663
▁سیما	-9664
▁سینہ	-9665
▁شافی	-9666
▁شرمی	-9667
▁شناس	-9668
▁شکوہ	-9669
▁صابر	-9670
▁صحاب	-9671
▁صلیب	-9672
▁ضبوط	-9673
▁طلبہ	-9674
▁ظہیر	-9675
▁عاشق	-9676
▁عاقب	-9677
▁عجلت	-9678
▁عزت۔	-9679
▁عشاق	-9680
▁عہدِ	-9681
▁عیاش	-9682
▁غافل	-9683
▁غرور	-9684
▁غیرت	-9685
▁فارو	-9686
▁فاسو	-9687
▁فرقے	-9688
▁فلیٹ	-9689
▁فوسل	-9690
▁فیسر	-9691
▁فیچر	-9692
▁قاضی	-9693
▁قدمی	-9694
▁قرضہ	-9695
▁قطعا	-9696
▁قلعی	-9697
▁لادن	-9698
▁لانچ	-9699
ئنز	-9700
امر	-9701
باع	-9702
باڈ	-9703
تعل	-9704
حصہ	-9705
ساز	-9706
سید	-9707
فید	-9708
نجم	-9709
نگس	-9710
گتا	-9711
بیئن	-9712
سیئن	-9713
شیئن	-9714
طبیع	-9715
لگتا	-9716
ندنس	-9717
ونلڈ	-9718
یبوں	-9719
▁آید	-9720
▁اوت	-9721
▁اوز	-9722
▁بس۔	-9723
▁جوس	-9724
▁سمو	-9725
▁پہر	-9726
▁کدے	-9727
اداری	-9728
ادوال	-9729
اسمجھ	-9730
اندھی	-9731
باڈوس	-9732
پسندی	-9733
ہےہیں	-9734
▁اسنے	-9735
▁اورل	-9736
▁اویس	-9737
▁بادہ	-9738
▁براز	-9739
▁بستا	-9740
▁جنگ۔	-9741
▁جوتا	-9742
▁جولی	-9743
▁صدقے	-9744
▁فلیر	-9745
▁لعنت	-9746
▁لفظی	-9747
▁لمبے	-9748
▁لوئس	-9749
▁لٹکے	-9750
▁لکیر	-9751
▁مارٹ	-9752
▁ماشا	-9753
▁متحد	-9754
▁مدعی	-9755
▁مراح	-9756
▁مرتد	-9757
▁مستن	-9758
▁مستی	-9759
▁مسرت	-9760
▁مفرو	-9761
▁مقدس	-9762
▁منزہ	-9763
▁مِٹی	-9764
▁میوہ	-9765
▁نائٹ	-9766
▁نبوی	-9767
▁نذیر	-9768
▁نروس	-9769
▁نصیر	-9770
▁نعرہ	-9771
▁نقوش	-9772
▁نویں	-9773
▁نیچا	-9774
▁وسال	-9775
▁وعرض	-9776
▁وعید	-9777
▁وقفہ	-9778
▁وقوف	-9779
▁ووڈا	-9780
▁ویدر	-9781
▁ویزہ	-9782
▁ٹاکر	-9783
▁ٹریڈ	-9784
▁ٹوٹا	-9785
▁ٹھیس	-9786
▁ٹیکا	-9787
▁پاتی	-9788
▁پاشا	-9789
▁پاغل	-9790
▁پانٹ	-9791
▁پتلا	-9792
▁پراگ	-9793
▁پورٹ	-9794
▁پونٹ	-9795
▁پڑھے	-9796
▁پکھا	-9797
▁پھری	-9798
▁پھوٹ	-9799
نظ	-9800
بلی	-9801
تاج	-9802
جتی	-9803
شمی	-9804
صدر	-9805
قیس	-9806
مرد	-9807
ورز	-9808
ویا	-9809
چاس	-9810
▁صل	-9811
▁طر	-9812
▁ٹچ	-9813
▁کع	-9814
ائیہ	-9815
اباد	-9816
ارشی	-9817
تیان	-9818
زلوں	-9819
فاوت	-9820
لینا	-9821
ندیم	-9822
نٹوا	-9823
▁تلہ	-9824
▁جیم	-9825
▁زاد	-9826
▁سنے	-9827
▁صاد	-9828
▁صنا	-9829
▁قیم	-9830
▁لیز	-9831
▁لیس	-9832
▁مئے	-9833
▁متش	-9834
▁چاد	-9835
▁چھو	-9836
▁ڈیس	-9837
▁ینی	-9838
اتھال	-9839
القیس	-9840
رندیم	-9841
سیاسی	-9842
ظرمیں	-9843
نظروں	-9844
▁اسمی	-9845
▁اوشی	-9846
▁بائی	-9847
▁جیمز	-9848
▁دانے	-9849
▁زاہد	-9850
▁صادق	-9851
▁طبعی	-9852
▁لیلہ	-9853
▁مارک	-9854
▁ننگے	-9855
▁نہتے	-9856
▁پراب	-9857
▁پچاس	-9858
▁پھٹی	-9859
▁پہلہ	-9860
▁پہنت	-9861
▁پیلز	-9862
▁پینل	-9863
▁پیٹس	-9864
▁چارپ	-9865
▁چانس	-9866
▁چاھی	-9867
▁چرچل	-9868
▁چندہ	-9869
▁چننا	-9870
▁چوٹی	-9871
▁چوپا	-9872
▁چِیز	-9873
▁چکور	-9874
▁چھلک	-9875
▁چھٹک	-9876
▁چیتا	-9877
▁چیتے	-9878
▁چینج	-9879
▁ڈالو	-9880
▁ڈرنا	-9881
▁ڈھان	-9882
▁ڈھلی	-9883
▁ڈھلے	-9884
▁ڈھکن	-9885
▁ڈیتھ	-9886
▁ڈیول	-9887
▁کاجن	-9888
▁کاٹن	-9889
▁کشتی	-9890
▁کلکت	-9891
▁کمپو	-9892
▁کمیل	-9893
▁کوآن	-9894
▁کویٹ	-9895
▁کھرے	-9896
▁کھوج	-9897
▁کہو۔	-9898
▁گرچہ	-9899
ئیل	-9900
اعش	-9901
روچ	-9902
وئے	-9903
وقع	-9904
ٹوٹ	-9905
چیل	-9906
کیف	-9907
گزا	-9908
ادیں	-9909
الاز	-9910
انیا	-9911
رانز	-9912
ریزے	-9913
ریز۔	-9914
ریٹج	-9915
زانہ	-9916
مال۔	-9917
▁بکا	-9918
▁تیم	-9919
▁خفت	-9920
▁رہِ	-9921
▁زائ	-9922
▁صلو	-9923
▁طول	-9924
▁پنا	-9925
▁کلو	-9926
اخانہ	-9927
رانزٹ	-9928
ریٹجک	-9929
عمال۔	-9930
متوقع	-9931
نڈیشن	-9932
چیلسی	-9933
گزاشت	-9934
▁	-9935
ا	-9936
ی	-9937
ک	-9938
ر	-9939
ہ	-9940
و	-9941
ن	-9942
ے	-9943
م	-9944
ت	-9945
س	-9946
ل	-9947
ب	-9948
ں	-9949
د	-9950
ھ	-9951
پ	-9952
ج	-9953
۔	-9954
گ	-9955
ئ	-9956
ف	-9957
ع	-9958
ٹ	-9959
ق	-9960
ش	-9961
ز	-9962
چ	-9963
ح	-9964
خ	-9965
آ	-9966
ص	-9967
ڈ	-9968
ط	-9969
ڑ	-9970
ض	-9971
ظ	-9972
غ	-9973
؟	-9974
ذ	-9975
ث	-9976
،	-9977
5	-9978
e	-9979
2	-9980
4	-9981
f	-9982
7	-9983
3	-9984
9	-9985
0	-9986
6	-9987
c	-9988
ِ	-9989
8	-9990
b	-9991
